{
  "version": "1.0",
  "truncation": null,
  "padding": null,
  "added_tokens": [
    {
      "id": 0,
      "content": "[UNK]",
      "single_word": false,
      "lstrip": false,
      "rstrip": false,
      "normalized": false,
      "special": true
    },
    {
      "id": 1,
      "content": "[CLS]",
      "single_word": false,
      "lstrip": false,
      "rstrip": false,
      "normalized": false,
      "special": true
    }
  ],
  "normalizer": null,
  "pre_tokenizer": {
    "type": "ByteLevel",
    "add_prefix_space": true,
    "trim_offsets": true,
    "use_regex": true
  },
  "post_processor": null,
  "decoder": null,
  "model": {
    "type": "BPE",
    "dropout": null,
    "unk_token": "[UNK]",
    "continuing_subword_prefix": null,
    "end_of_word_suffix": null,
    "fuse_unk": false,
    "byte_fallback": false,
    "ignore_merges": false,
    "vocab": {
      "[UNK]": 0,
      "[CLS]": 1,
      "%": 2,
      "&": 3,
      "*": 4,
      "+": 5,
      "-": 6,
      ".": 7,
      "/": 8,
      "0": 9,
      "1": 10,
      "2": 11,
      "3": 12,
      "4": 13,
      "5": 14,
      "6": 15,
      "7": 16,
      "8": 17,
      "9": 18,
      ":": 19,
      "=": 20,
      "@": 21,
      "A": 22,
      "B": 23,
      "C": 24,
      "D": 25,
      "E": 26,
      "F": 27,
      "G": 28,
      "H": 29,
      "I": 30,
      "J": 31,
      "K": 32,
      "L": 33,
      "M": 34,
      "N": 35,
      "O": 36,
      "P": 37,
      "Q": 38,
      "R": 39,
      "S": 40,
      "T": 41,
      "U": 42,
      "V": 43,
      "W": 44,
      "X": 45,
      "Y": 46,
      "Z": 47,
      "\\": 48,
      "_": 49,
      "a": 50,
      "b": 51,
      "c": 52,
      "d": 53,
      "e": 54,
      "f": 55,
      "g": 56,
      "h": 57,
      "i": 58,
      "j": 59,
      "k": 60,
      "l": 61,
      "m": 62,
      "n": 63,
      "o": 64,
      "p": 65,
      "q": 66,
      "r": 67,
      "s": 68,
      "t": 69,
      "u": 70,
      "v": 71,
      "w": 72,
      "x": 73,
      "y": 74,
      "z": 75,
      "|": 76,
      "Ċ": 77,
      "Ġ": 78,
      "++": 79,
      "re": 80,
      "in": 81,
      "ar": 82,
      "ci": 83,
      "er": 84,
      "27": 85,
      "nt": 86,
      "do": 87,
      "st": 88,
      "or": 89,
      "25": 90,
      "on": 91,
      "as": 92,
      "29": 93,
      "28": 94,
      "ro": 95,
      "el": 96,
      "al": 97,
      "ad": 98,
      "++++": 99,
      "et": 100,
      "es": 101,
      "il": 102,
      "+%": 103,
      "en": 104,
      "ri": 105,
      "an": 106,
      "mo": 107,
      "40": 108,
      "lo": 109,
      "gi": 110,
      "no": 111,
      "em": 112,
      "at": 113,
      "=%": 114,
      "id": 115,
      "ee": 116,
      "to": 117,
      "rar": 118,
      "Ġmo": 119,
      "Ġmodo": 120,
      "22": 121,
      "gist": 122,
      "di": 123,
      "ec": 124,
      "ni": 125,
      "li": 126,
      "log": 127,
      "co": 128,
      "mb": 129,
      "am": 130,
      "os": 131,
      "mbre": 132,
      "nombre": 133,
      "ch": 134,
      "it": 135,
      "ass": 136,
      "login": 137,
      "ud": 138,
      "ir": 139,
      "ap": 140,
      "rec": 141,
      "tt": 142,
      ".%": 143,
      "ca": 144,
      "pass": 145,
      "le": 146,
      "ail": 147,
      "de": 148,
      "pro": 149,
      "ie": 150,
      "passw": 151,
      "cp": 152,
      "te": 153,
      "26": 154,
      "ent": 155,
      "Re": 156,
      "ae": 157,
      "vin": 158,
      "cia": 159,
      "23": 160,
      "10": 161,
      "ord": 162,
      "256": 163,
      "cio": 164,
      "pre": 165,
      "la": 166,
      "dos": 167,
      "pt": 168,
      "cion": 169,
      "dni": 170,
      "ntc": 171,
      "elli": 172,
      "udad": 173,
      "email": 174,
      "password": 175,
      "provin": 176,
      "direc": 177,
      "apelli": 178,
      "ciudad": 179,
      "provincia": 180,
      "direccion": 181,
      "apellidos": 182,
      "precio": 183,
      "gistrar": 184,
      "Registrar": 185,
      "regist": 186,
      "registro": 187,
      "++%": 188,
      "21": 189,
      "++++%": 190,
      "eo": 191,
      "io": 192,
      "+++%": 193,
      "car": 194,
      "+++": 195,
      "Ġid": 196,
      "ert": 197,
      "se": 198,
      "24": 199,
      "ra": 200,
      "..%": 201,
      "so": 202,
      "rito": 203,
      "carrito": 204,
      "+++++": 205,
      "--": 206,
      "he": 207,
      "sc": 208,
      "ht": 209,
      "ho": 210,
      "253": 211,
      "ia": 212,
      "ne": 213,
      "74": 214,
      "15": 215,
      "+&": 216,
      "ion": 217,
      "ac": 218,
      "ot": 219,
      "is": 220,
      "39": 221,
      "85": 222,
      "20": 223,
      "ea": 224,
      "19": 225,
      "ex": 226,
      "70": 227,
      "us": 228,
      "ja": 229,
      "16": 230,
      "76": 231,
      "ao": 232,
      "ut": 233,
      "13": 234,
      "wd": 235,
      "ins": 236,
      "ce": 237,
      "18": 238,
      "75": 239,
      "ber": 240,
      "inc": 241,
      "sg": 242,
      "rt": 243,
      "14": 244,
      "go": 245,
      "73": 246,
      "ript": 247,
      "ei": 248,
      "au": 249,
      "insert": 250,
      "sh": 251,
      "ild": 252,
      "ed": 253,
      "um": 254,
      "eh": 255,
      "79": 256,
      "80": 257,
      "bo": 258,
      "na": 259,
      "child": 260,
      "ns": 261,
      "rem": 262,
      "cant": 263,
      "ect": 264,
      "pwd": 265,
      "ru": 266,
      "60": 267,
      "idad": 268,
      "89": 269,
      "*%": 270,
      "sa": 271,
      "49": 272,
      "im": 273,
      "45": 274,
      "ember": 275,
      "ta": 276,
      "cantidad": 277,
      "Ent": 278,
      "remember": 279,
      "--%": 280,
      "adir": 281,
      "entrar": 282,
      "ur": 283,
      "65": 284,
      "Entrar": 285,
      "nd": 286,
      "30": 287,
      "insertar": 288,
      "69": 289,
      "ss": 290,
      "err": 291,
      "Fchild": 292,
      "35": 293,
      "htt": 294,
      "ha": 295,
      "lt": 296,
      "78": 297,
      "sn": 298,
      "ces": 299,
      "ue": 300,
      "ai": 301,
      "48": 302,
      "script": 303,
      "ct": 304,
      "http": 305,
      "md": 306,
      "sr": 307,
      "ĠB": 308,
      "cat": 309,
      "si": 310,
      "ti": 311,
      "me": 312,
      "nn": 313,
      "oo": 314,
      "ay": 315,
      "den": 316,
      "orM": 317,
      "ah": 318,
      "Ġerr": 319,
      "orMsg": 320,
      "ĠerrorMsg": 321,
      "46": 322,
      "exec": 323,
      "tas": 324,
      "ll": 325,
      "of": 326,
      "xt": 327,
      "pos": 328,
      "ales": 329,
      "aci": 330,
      "43": 331,
      "ww": 332,
      "ok": 333,
      "ft": 334,
      "270": 335,
      "op": 336,
      "oe": 337,
      "aa": 338,
      "11": 339,
      "Cre": 340,
      "ls": 341,
      "ition": 342,
      "50": 343,
      "position": 344,
      "ab": 345,
      "tr": 346,
      "Vaci": 347,
      "Vaciar": 348,
      "doc": 349,
      "tn": 350,
      "hn": 351,
      "ciales": 352,
      "orrec": 353,
      "com": 354,
      "incorrec": 355,
      "denciales": 356,
      "Credenciales": 357,
      "83": 358,
      "+++++%": 359,
      "incorrectas": 360,
      "ob": 361,
      "sy": 362,
      "tm": 363,
      "win": 364,
      "del": 365,
      "ument": 366,
      "document": 367,
      "we": 368,
      "hr": 369,
      "55": 370,
      "ii": 371,
      "250": 372,
      "66": 373,
      "up": 374,
      "ame": 375,
      "ts": 376,
      "nr": 377,
      "ag": 378,
      "88": 379,
      "th": 380,
      "ol": 381,
      "90": 382,
      "33": 383,
      "mar": 384,
      "ph": 385,
      "tu": 386,
      "17": 387,
      "=+": 388,
      "da": 389,
      "hi": 390,
      "ml": 391,
      "ma": 392,
      "cn": 393,
      "252": 394,
      "un": 395,
      "rn": 396,
      "dow": 397,
      "sp": 398,
      "okie": 399,
      "cookie": 400,
      "onf": 401,
      "Cal": 402,
      "44": 403,
      "ge": 404,
      "hs": 405,
      "99": 406,
      "od": 407,
      "86": 408,
      "por": 409,
      "dt": 410,
      "unt": 411,
      "De": 412,
      "ih": 413,
      "and": 414,
      "36": 415,
      "ino": 416,
      "77": 417,
      "pe": 418,
      "fr": 419,
      "per": 420,
      "bin": 421,
      "41": 422,
      "Bposition": 423,
      "Pas": 424,
      "ui": 425,
      "wa": 426,
      "09": 427,
      "net": 428,
      "rs": 429,
      "59": 430,
      "mt": 431,
      "etc": 432,
      "oi": 433,
      "cmd": 434,
      "for": 435,
      "Calle": 436,
      "oa": 437,
      "node": 438,
      "rr": 439,
      "eu": 440,
      "om": 441,
      "Conf": 442,
      "irmar": 443,
      "Confirmar": 444,
      "eg": 445,
      "ues": 446,
      "ic": 447,
      "off": 448,
      "..": 449,
      "dy": 450,
      "eb": 451,
      "caja": 452,
      "Pasar": 453,
      "Al": 454,
      "rm": 455,
      "nh": 456,
      "cess": 457,
      "38": 458,
      "ED": 459,
      "ey": 460,
      "ev": 461,
      "count": 462,
      "00": 463,
      "56": 464,
      "nu": 465,
      "oh": 466,
      "12": 467,
      "ds": 468,
      "ing": 469,
      "lud": 470,
      "ps": 471,
      "EC": 472,
      "34": 473,
      "ba": 474,
      "84": 475,
      "za": 476,
      "100": 477,
      "ig": 478,
      "ln": 479,
      "av": 480,
      "includ": 481,
      "ego": 482,
      "td": 483,
      "alert": 484,
      "sty": 485,
      "ini": 486,
      "fro": 487,
      "nc": 488,
      "tl": 489,
      "sd": 490,
      "aros": 491,
      "passwd": 492,
      "Rio": 493,
      "open": 494,
      "Bdocument": 495,
      "fe": 496,
      "be": 497,
      "sel": 498,
      "71": 499,
      "hh": 500,
      "mail": 501,
      "ke": 502,
      "by": 503,
      "Man": 504,
      "ga": 505,
      "vi": 506,
      "RO": 507,
      "ject": 508,
      "ul": 509,
      "sl": 510,
      "nl": 511,
      "ath": 512,
      "Ib": 513,
      "rh": 514,
      "aj": 515,
      "Rioja": 516,
      "fo": 517,
      "2574": 518,
      "68": 519,
      "64": 520,
      "cgi": 521,
      "ep": 522,
      "ua": 523,
      "window": 524,
      "include": 525,
      "05": 526,
      "cation": 527,
      "dn": 528,
      "Anode": 529,
      "ck": 530,
      "67": 531,
      "ew": 532,
      "from": 533,
      "63": 534,
      "95": 535,
      "va": 536,
      "mi": 537,
      "rep": 538,
      "SE": 539,
      "rd": 540,
      "get": 541,
      "IN": 542,
      "location": 543,
      "ant": 544,
      "ty": 545,
      "72": 546,
      "stem": 547,
      "ef": 548,
      "sm": 549,
      "ub": 550,
      "dat": 551,
      "2563": 552,
      "style": 553,
      "Vino": 554,
      "rl": 555,
      "hd": 556,
      "Manch": 557,
      "Ques": 558,
      "af": 559,
      "Manchego": 560,
      "31": 561,
      "object": 562,
      "gt": 563,
      "81": 564,
      "name": 565,
      "47": 566,
      "res": 567,
      "37": 568,
      "var": 569,
      "py": 570,
      "hl": 571,
      "ib": 572,
      "wt": 573,
      "select": 574,
      "had": 575,
      "87": 576,
      "auto": 577,
      "po": 578,
      "all": 579,
      "Jam": 580,
      "uo": 581,
      "Fetc": 582,
      "repla": 583,
      "RE": 584,
      "ez": 585,
      "pa": 586,
      "ng": 587,
      "ell": 588,
      "bt": 589,
      "path": 590,
      "rico": 591,
      "text": 592,
      "dd": 593,
      "Queso": 594,
      "rc": 595,
      "www": 596,
      "yo": 597,
      "ye": 598,
      "Cl": 599,
      "93": 600,
      "ona": 601,
      "cl": 602,
      "nm": 603,
      "yt": 604,
      "system": 605,
      "98": 606,
      "CR": 607,
      "und": 608,
      "OR": 609,
      "cu": 610,
      "fi": 611,
      "dr": 612,
      "xp": 613,
      "58": 614,
      "ve": 615,
      "pl": 616,
      "uh": 617,
      "PT": 618,
      "ete": 619,
      "96": 620,
      "Ca": 621,
      "La": 622,
      "qu": 623,
      "autoexec": 624,
      "cs": 625,
      "53": 626,
      "onn": 627,
      "ms": 628,
      "dir": 629,
      "eta": 630,
      "HE": 631,
      "bi": 632,
      "gu": 633,
      "FRO": 634,
      "mn": 635,
      "gro": 636,
      "FROM": 637,
      "pi": 638,
      "wo": 639,
      "Ro": 640,
      "vb": 641,
      "2565": 642,
      "2569": 643,
      "replace": 644,
      "ara": 645,
      "54": 646,
      "user": 647,
      "xml": 648,
      "ECT": 649,
      "06": 650,
      "era": 651,
      "Et": 652,
      "dh": 653,
      "BT": 654,
      "wp": 655,
      "asc": 656,
      "94": 657,
      "bg": 658,
      "Fpasswd": 659,
      "ws": 660,
      "08": 661,
      "wn": 662,
      "any": 663,
      "cr": 664,
      "gr": 665,
      "lr": 666,
      "az": 667,
      "Ar": 668,
      "su": 669,
      "AS": 670,
      "iu": 671,
      "jo": 672,
      "IPT": 673,
      "SCR": 674,
      "ny": 675,
      "if": 676,
      "img": 677,
      "Ee": 678,
      "winnt": 679,
      "Val": 680,
      "hm": 681,
      "ano": 682,
      "min": 683,
      "rf": 684,
      "tc": 685,
      "div": 686,
      "Paros": 687,
      "bri": 688,
      "iv": 689,
      "bs": 690,
      "uel": 691,
      "ya": 692,
      "03": 693,
      "En": 694,
      "2522": 695,
      "Atext": 696,
      "tmp": 697,
      "57": 698,
      "91": 699,
      "AN": 700,
      "hu": 701,
      "wait": 702,
      "vir": 703,
      "whe": 704,
      "ld": 705,
      "mp": 706,
      "gn": 707,
      "Es": 708,
      "delay": 709,
      "Bwait": 710,
      "inst": 711,
      "Bwaitfor": 712,
      "wi": 713,
      "61": 714,
      "amper": 715,
      "bn": 716,
      "jav": 717,
      "ko": 718,
      "ĠidA": 719,
      "fa": 720,
      "uni": 721,
      "ana": 722,
      "gs": 723,
      "hy": 724,
      "BTamper": 725,
      "97": 726,
      "din": 727,
      "access": 728,
      "echo": 729,
      "110": 730,
      "lin": 731,
      "Ġ/": 732,
      "ry": 733,
      "ruct": 734,
      "iz": 735,
      "WHE": 736,
      "ascript": 737,
      "fn": 738,
      "WHERE": 739,
      "SEL": 740,
      "fil": 741,
      "dl": 742,
      "tual": 743,
      "instruct": 744,
      "stre": 745,
      "cessing": 746,
      "FN": 747,
      "virtual": 748,
      "pn": 749,
      "ill": 750,
      "wh": 751,
      "04": 752,
      "mr": 753,
      "Er": 754,
      "mu": 755,
      "Fscript": 756,
      "To": 757,
      "ero": 758,
      "Dhad": 759,
      "lh": 760,
      "yn": 761,
      "erm": 762,
      "processing": 763,
      "instruction": 764,
      "Ġt": 765,
      "51": 766,
      "du": 767,
      "fs": 768,
      "javascript": 769,
      "=..%": 770,
      "Eo": 771,
      "ip": 772,
      "ftp": 773,
      "iw": 774,
      "tel": 775,
      "br": 776,
      "**%": 777,
      "123": 778,
      "je": 779,
      "zo": 780,
      "El": 781,
      "gh": 782,
      "cha": 783,
      "bet": 784,
      "ina": 785,
      "ada": 786,
      "32": 787,
      "boot": 788,
      "onnect": 789,
      "Mo": 790,
      "body": 791,
      "eq": 792,
      "where": 793,
      "San": 794,
      "cd": 795,
      "mh": 796,
      "-&": 797,
      "IO": 798,
      "ess": 799,
      "bat": 800,
      "tf": 801,
      "brien": 802,
      "pr": 803,
      "aw": 804,
      "82": 805,
      "bh": 806,
      "ej": 807,
      "iy": 808,
      "ou": 809,
      "utdow": 810,
      "....": 811,
      "SELECT": 812,
      "ASet": 813,
      "bc": 814,
      "tg": 815,
      "sth": 816,
      "DN": 817,
      "ter": 818,
      "lu": 819,
      "sam": 820,
      "Bar": 821,
      "oc": 822,
      "Car": 823,
      "Mar": 824,
      "sw": 825,
      "07": 826,
      "FA": 827,
      "ek": 828,
      "oy": 829,
      "ver": 830,
      "bl": 831,
      "admin": 832,
      "ĠerrorMsgA": 833,
      "usr": 834,
      "At": 835,
      "sf": 836,
      "Ealert": 837,
      "bu": 838,
      "wr": 839,
      "Fwww": 840,
      "UN": 841,
      "nf": 842,
      "ser": 843,
      "objectCl": 844,
      "objectClass": 845,
      "Ea": 846,
      "inp": 847,
      "vbscript": 848,
      "Le": 849,
      "42": 850,
      "Ce": 851,
      "WIN": 852,
      "illa": 853,
      "np": 854,
      "oz": 855,
      "727": 856,
      "Fcgi": 857,
      "Gu": 858,
      "2529": 859,
      "ka": 860,
      "rop": 861,
      "tw": 862,
      "xe": 863,
      "org": 864,
      "stream": 865,
      "Co": 866,
      "Te": 867,
      "ly": 868,
      "Ei": 869,
      "nw": 870,
      "AL": 871,
      "2528": 872,
      "ki": 873,
      "mc": 874,
      "62": 875,
      "ack": 876,
      "2561": 877,
      "havin": 878,
      "tp": 879,
      "ran": 880,
      "AND": 881,
      "gl": 882,
      "tb": 883,
      "01": 884,
      "copy": 885,
      "CSCR": 886,
      "ween": 887,
      "form": 888,
      "tar": 889,
      "52": 890,
      "group": 891,
      "hc": 892,
      "pas": 893,
      "ys": 894,
      "htac": 895,
      "sound": 896,
      "Sal": 897,
      "qe": 898,
      "92": 899,
      "Sant": 900,
      "htpass": 901,
      "home": 902,
      "union": 903,
      "xy": 904,
      "stdin": 905,
      "sock": 906,
      "htacces": 907,
      "Ae": 908,
      "hf": 909,
      "wget": 910,
      "shutdow": 911,
      "og": 912,
      "eee": 913,
      "dm": 914,
      "ze": 915,
      "Ġe": 916,
      "updat": 917,
      "ak": 918,
      "sb": 919,
      "vo": 920,
      "Cu": 921,
      "aq": 922,
      "lm": 923,
      "paros": 924,
      "connect": 925,
      "arra": 926,
      "ff": 927,
      "yi": 928,
      "cept": 929,
      "yr": 930,
      "-=": 931,
      "Ci": 932,
      "Fhttp": 933,
      "ow": 934,
      "+--%": 935,
      "Eh": 936,
      "db": 937,
      "cel": 938,
      "2527": 939,
      "vices": 940,
      "sthru": 941,
      "qt": 942,
      "eT": 943,
      "fh": 944,
      "ren": 945,
      "ida": 946,
      "EX": 947,
      "kt": 948,
      "2640": 949,
      "man": 950,
      "ug": 951,
      "Ġn": 952,
      "exe": 953,
      "Bl": 954,
      "Fi": 955,
      "wl": 956,
      "encia": 957,
      "bgsound": 958,
      "Fhttpd": 959,
      "cm": 960,
      "74727": 961,
      "Ed": 962,
      "jt": 963,
      "iq": 964,
      "1041": 965,
      "input": 966,
      "having": 967,
      "ION": 968,
      "Pl": 969,
      "bd": 970,
      "rp": 971,
      "ora": 972,
      "ET": 973,
      "url": 974,
      "src": 975,
      "An": 976,
      "ix": 977,
      "NT": 978,
      "bar": 979,
      "uc": 980,
      "--&": 981,
      "25374727": 982,
      "11025374727": 983,
      "264011025374727": 984,
      "1041264011025374727": 985,
      "accept": 986,
      "xterm": 987,
      "frame": 988,
      "Bo": 989,
      "Or": 990,
      "fl": 991,
      "hp": 992,
      "Ġo": 993,
      "hg": 994,
      "hw": 995,
      "yN": 996,
      "Csystem": 997,
      "Ft": 998,
      "ik": 999,
      "between": 1000,
      "2570": 1001,
      "my": 1002,
      "nb": 1003,
      "sta": 1004,
      "ste": 1005,
      "like": 1006,
      "dc": 1007,
      "Ġs": 1008,
      "2573": 1009,
      "&.": 1010,
      "df": 1011,
      "rw": 1012,
      "235": 1013,
      "As": 1014,
      "Se": 1015,
      "php": 1016,
      "Do": 1017,
      "ila": 1018,
      "02": 1019,
      "Fe": 1020,
      "DO": 1021,
      "rg": 1022,
      "@=": 1023,
      "uy": 1024,
      "kn": 1025,
      "Fa": 1026,
      "No": 1027,
      "Balert": 1028,
      "ers": 1029,
      "Ot": 1030,
      "Si": 1031,
      "Tt": 1032,
      "vt": 1033,
      ".=": 1034,
      "Ri": 1035,
      "_=": 1036,
      "St": 1037,
      "lc": 1038,
      "xa": 1039,
      "Cn": 1040,
      "Ie": 1041,
      "eE": 1042,
      "rb": 1043,
      "zt": 1044,
      "Cscript": 1045,
      "sk": 1046,
      "*+%": 1047,
      "Bwindow": 1048,
      "jn": 1049,
      "yu": 1050,
      "Ġa": 1051,
      "fd": 1052,
      "765": 1053,
      "qn": 1054,
      "Cam": 1055,
      "Em": 1056,
      "Dt": 1057,
      "netcat": 1058,
      "&@": 1059,
      "Ch": 1060,
      "Ġr": 1061,
      "&_": 1062,
      "Ct": 1063,
      "cf": 1064,
      "Ao": 1065,
      "val": 1066,
      "ĠmodoA": 1067,
      ".+": 1068,
      "mocha": 1069,
      "Am": 1070,
      "Fn": 1071,
      "gos": 1072,
      "pu": 1073,
      "qo": 1074,
      "nte": 1075,
      "It": 1076,
      "Pal": 1077,
      "kh": 1078,
      "Ba": 1079,
      "Cs": 1080,
      "ji": 1081,
      "eeo": 1082,
      "passthru": 1083,
      "So": 1084,
      "ks": 1085,
      "aE": 1086,
      "yl": 1087,
      "EXEC": 1088,
      "Fo": 1089,
      "mm": 1090,
      "wu": 1091,
      "ase": 1092,
      "Oe": 1093,
      "Tr": 1094,
      "_&": 1095,
      "zn": 1096,
      "ene": 1097,
      "rid": 1098,
      "Is": 1099,
      "lib": 1100,
      "Cor": 1101,
      "In": 1102,
      "xs": 1103,
      "ett": 1104,
      "Da": 1105,
      "Fbin": 1106,
      "Tn": 1107,
      "zi": 1108,
      "dor": 1109,
      "pd": 1110,
      "illo": 1111,
      "disp": 1112,
      "Fh": 1113,
      "gd": 1114,
      "Be": 1115,
      "anca": 1116,
      "UNION": 1117,
      "Nt": 1118,
      "cc": 1119,
      "hb": 1120,
      "ret": 1121,
      "displa": 1122,
      "Os": 1123,
      "uu": 1124,
      "ens": 1125,
      "ari": 1126,
      "telnet": 1127,
      "xo": 1128,
      "ern": 1129,
      "Ni": 1130,
      "qs": 1131,
      "Ra": 1132,
      "Rt": 1133,
      "ena": 1134,
      "2500": 1135,
      "yh": 1136,
      "int": 1137,
      "null": 1138,
      "Po": 1139,
      "221": 1140,
      "ape": 1141,
      "Bu": 1142,
      "Eu": 1143,
      "FH": 1144,
      "Ne": 1145,
      "aT": 1146,
      "vs": 1147,
      "AR": 1148,
      "Ad": 1149,
      "qi": 1150,
      "Ġh": 1151,
      "Ai": 1152,
      "vn": 1153,
      "ALL": 1154,
      "Sa": 1155,
      "cy": 1156,
      "tz": 1157,
      "shutdown": 1158,
      "fu": 1159,
      "js": 1160,
      "&-": 1161,
      "xi": 1162,
      "mg": 1163,
      "Ġd": 1164,
      "CWIN": 1165,
      "eri": 1166,
      "271": 1167,
      "ese": 1168,
      "eno": 1169,
      "Bur": 1170,
      "He": 1171,
      "Cast": 1172,
      "Ta": 1173,
      "lb": 1174,
      "zs": 1175,
      "eea": 1176,
      "Cimg": 1177,
      "wm": 1178,
      "eval": 1179,
      "On": 1180,
      "kr": 1181,
      "ment": 1182,
      "FC": 1183,
      "Ġi": 1184,
      "Tor": 1185,
      "lf": 1186,
      "yd": 1187,
      "Ds": 1188,
      "Ju": 1189,
      "rv": 1190,
      "AM": 1191,
      "Av": 1192,
      "https": 1193,
      "Dn": 1194,
      "des": 1195,
      "tE": 1196,
      "Cx": 1197,
      "Ti": 1198,
      "WS": 1199,
      "tj": 1200,
      "xn": 1201,
      "Di": 1202,
      "ato": 1203,
      "link": 1204,
      "DE": 1205,
      "TA": 1206,
      "mw": 1207,
      "Ir": 1208,
      "dw": 1209,
      "file": 1210,
      "drop": 1211,
      "2572": 1212,
      "Na": 1213,
      "qa": 1214,
      "via": 1215,
      "EDa": 1216,
      "Io": 1217,
      "ij": 1218,
      "pm": 1219,
      "tv": 1220,
      "zh": 1221,
      "rel": 1222,
      "celona": 1223,
      "Lo": 1224,
      "eto": 1225,
      "+-": 1226,
      ".&": 1227,
      "art": 1228,
      "=-": 1229,
      "Fl": 1230,
      "Nav": 1231,
      "zr": 1232,
      "Sn": 1233,
      "Bj": 1234,
      "rcp": 1235,
      "precioA": 1236,
      "username": 1237,
      "gg": 1238,
      "Del": 1239,
      "perl": 1240,
      "Ff": 1241,
      "Fs": 1242,
      "LI": 1243,
      "sti": 1244,
      "eei": 1245,
      "yName": 1246,
      "displayName": 1247,
      "back": 1248,
      "eN": 1249,
      "qh": 1250,
      "ym": 1251,
      "sto": 1252,
      "ria": 1253,
      "Aa": 1254,
      "eet": 1255,
      "services": 1256,
      "FE": 1257,
      "Sh": 1258,
      "ipt": 1259,
      "sj": 1260,
      "Ġl": 1261,
      "Cr": 1262,
      "nph": 1263,
      "sE": 1264,
      "uf": 1265,
      "xm": 1266,
      "etsc": 1267,
      "ati": 1268,
      "bob": 1269,
      "Bk": 1270,
      "FB": 1271,
      "gm": 1272,
      "tk": 1273,
      "eeh": 1274,
      "scr": 1275,
      "rer": 1276,
      "delete": 1277,
      "FD": 1278,
      "KE": 1279,
      "iT": 1280,
      "vh": 1281,
      "ession": 1282,
      "Fu": 1283,
      "ax": 1284,
      "dg": 1285,
      "ement": 1286,
      "amanca": 1287,
      "getfil": 1288,
      "Root": 1289,
      "DNetsc": 1290,
      "Guad": 1291,
      "targetfil": 1292,
      "apeRoot": 1293,
      "DNetscapeRoot": 1294,
      "targetfilter": 1295,
      "dp": 1296,
      "iE": 1297,
      "mer": 1298,
      "Acom": 1299,
      "eO": 1300,
      "Acomment": 1301,
      "Fc": 1302,
      "Rn": 1303,
      "Salamanca": 1304,
      "xec": 1305,
      "Burgos": 1306,
      "FG": 1307,
      "jr": 1308,
      "EN": 1309,
      "Ss": 1310,
      "eH": 1311,
      "fm": 1312,
      "xr": 1313,
      "Lu": 1314,
      "qr": 1315,
      "ort": 1316,
      "enn": 1317,
      "Ah": 1318,
      "eI": 1319,
      "wy": 1320,
      "2348": 1321,
      "wf": 1322,
      "one": 1323,
      "Ab": 1324,
      "Cautoexec": 1325,
      "Pu": 1326,
      "Ts": 1327,
      "ani": 1328,
      "cg": 1329,
      "lp": 1330,
      "*+++%": 1331,
      "Ag": 1332,
      "Fr": 1333,
      "ros": 1334,
      "2055": 1335,
      "users": 1336,
      "Cm": 1337,
      "ate": 1338,
      "kl": 1339,
      "vr": 1340,
      "ster": 1341,
      "etn": 1342,
      "odbc": 1343,
      "bb": 1344,
      "dE": 1345,
      "jh": 1346,
      "Ġm": 1347,
      "Ac": 1348,
      "Ia": 1349,
      "gf": 1350,
      "xl": 1351,
      "ard": 1352,
      "ground": 1353,
      "background": 1354,
      "Ma": 1355,
      "Ns": 1356,
      "eR": 1357,
      "aro": 1358,
      "esc": 1359,
      "Fscr": 1360,
      "Ter": 1361,
      "eS": 1362,
      "rE": 1363,
      "xh": 1364,
      "ink": 1365,
      "oria": 1366,
      "proxy": 1367,
      "130": 1368,
      "CSCRipt": 1369,
      "parosproxy": 1370,
      "FscrIPT": 1371,
      "2520": 1372,
      "eni": 1373,
      "Ho": 1374,
      "Hu": 1375,
      "gc": 1376,
      "5765": 1377,
      "Ii": 1378,
      "les": 1379,
      "nz": 1380,
      "uw": 1381,
      "hk": 1382,
      "rq": 1383,
      "tT": 1384,
      "ine": 1385,
      "ela": 1386,
      "76235": 1387,
      "fc": 1388,
      "sz": 1389,
      "257": 1390,
      "att": 1391,
      "FSCR": 1392,
      "Me": 1393,
      "Ġby": 1394,
      "CSCRIPT": 1395,
      "FSCRIPT": 1396,
      "Oa": 1397,
      "672348": 1398,
      "2055672348": 1399,
      "57652055672348": 1400,
      "5765205567234876235": 1401,
      "Du": 1402,
      "Ef": 1403,
      "Ol": 1404,
      "stat": 1405,
      "170": 1406,
      "FI": 1407,
      "aee": 1408,
      "bm": 1409,
      "nE": 1410,
      "nv": 1411,
      "yc": 1412,
      "dol": 1413,
      "los": 1414,
      "Barcelona": 1415,
      "SS": 1416,
      "xd": 1417,
      "adrid": 1418,
      "Guadal": 1419,
      "Ht": 1420,
      "Li": 1421,
      "ju": 1422,
      "ref": 1423,
      "-%": 1424,
      "Oo": 1425,
      "bf": 1426,
      "update": 1427,
      "Pa": 1428,
      "asa": 1429,
      "LE": 1430,
      "Nn": 1431,
      "Oh": 1432,
      "Th": 1433,
      "dq": 1434,
      "ere": 1435,
      "gw": 1436,
      "met": 1437,
      "eso": 1438,
      "tq": 1439,
      "wc": 1440,
      "yy": 1441,
      "ata": 1442,
      "DOWS": 1443,
      "dk": 1444,
      "ov": 1445,
      "uz": 1446,
      "eli": 1447,
      "elnet": 1448,
      "esa": 1449,
      "ann": 1450,
      "409": 1451,
      "Br": 1452,
      "dj": 1453,
      "gy": 1454,
      "zm": 1455,
      "moch": 1456,
      "lw": 1457,
      "opt": 1458,
      "nto": 1459,
      "ira": 1460,
      "ente": 1461,
      "--++++%": 1462,
      "Bs": 1463,
      "Dr": 1464,
      "Pi": 1465,
      "pp": 1466,
      "*++%": 1467,
      "hE": 1468,
      "sv": 1469,
      "ree": 1470,
      "........": 1471,
      "Lt": 1472,
      "Ġy": 1473,
      "Au": 1474,
      "Ay": 1475,
      "Fm": 1476,
      "Hn": 1477,
      "Vill": 1478,
      "gp": 1479,
      "oq": 1480,
      "zu": 1481,
      "Cwindow": 1482,
      "Ll": 1483,
      "ets": 1484,
      "Aalert": 1485,
      "Ih": 1486,
      "bw": 1487,
      "oE": 1488,
      "vu": 1489,
      "Ġu": 1490,
      "185": 1491,
      "Cdiv": 1492,
      "gra": 1493,
      "jm": 1494,
      "zl": 1495,
      "ane": 1496,
      "Bt": 1497,
      "Nr": 1498,
      "cw": 1499,
      "Aurl": 1500,
      "Bi": 1501,
      "Ep": 1502,
      "Gir": 1503,
      "cb": 1504,
      "hq": 1505,
      "nq": 1506,
      "sT": 1507,
      "103": 1508,
      "--+%": 1509,
      "statement": 1510,
      "Hi": 1511,
      "Oi": 1512,
      "set": 1513,
      "180": 1514,
      "dz": 1515,
      "150": 1516,
      "goza": 1517,
      "12312": 1518,
      "Dh": 1519,
      "Rs": 1520,
      "eA": 1521,
      "263": 1522,
      "190": 1523,
      "FF": 1524,
      "bp": 1525,
      "mf": 1526,
      "sch": 1527,
      "ajara": 1528,
      "12312312": 1529,
      "essionid": 1530,
      "Cwindows": 1531,
      "*++++%": 1532,
      "227": 1533,
      "BC": 1534,
      "Il": 1535,
      "Vi": 1536,
      "ql": 1537,
      "405": 1538,
      "aeo": 1539,
      "aragoza": 1540,
      "Dl": 1541,
      "Eb": 1542,
      "cor": 1543,
      "2575": 1544,
      "--++%": 1545,
      "Santa": 1546,
      "Guadalajara": 1547,
      "Ec": 1548,
      "hor": 1549,
      "iee": 1550,
      "nT": 1551,
      "xu": 1552,
      "aso": 1553,
      "280": 1554,
      "aR": 1555,
      "nk": 1556,
      "+*": 1557,
      "120": 1558,
      "421": 1559,
      "=+%": 1560,
      "OP": 1561,
      "hv": 1562,
      "sN": 1563,
      "yp": 1564,
      "zd": 1565,
      "nombreA": 1566,
      "116": 1567,
      "Bal": 1568,
      "Eg": 1569,
      "Fx": 1570,
      "RS": 1571,
      "lg": 1572,
      "lv": 1573,
      "que": 1574,
      "143": 1575,
      "Valencia": 1576,
      "ple": 1577,
      "ele": 1578,
      "2567": 1579,
      "174": 1580,
      "rT": 1581,
      "2568": 1582,
      "189": 1583,
      "CN": 1584,
      "Fd": 1585,
      "Pla": 1586,
      "hz": 1587,
      "rz": 1588,
      "sx": 1589,
      "rea": 1590,
      "eti": 1591,
      "etr": 1592,
      "2564": 1593,
      "web": 1594,
      "140": 1595,
      "Ber": 1596,
      "Ew": 1597,
      "kd": 1598,
      "sec": 1599,
      "tx": 1600,
      "tto": 1601,
      "Ġ6": 1602,
      "oni": 1603,
      "aei": 1604,
      "155": 1605,
      "129": 1606,
      "175": 1607,
      "Ha": 1608,
      "Ja": 1609,
      "OT": 1610,
      "Zaragoza": 1611,
      "bal": 1612,
      "jl": 1613,
      "pen": 1614,
      "Ġ2": 1615,
      "Ġc": 1616,
      "osa": 1617,
      "loginA": 1618,
      "--+++%": 1619,
      "Ou": 1620,
      "Qu": 1621,
      "gen": 1622,
      "ku": 1623,
      "elo": 1624,
      "139": 1625,
      "168": 1626,
      "men": 1627,
      "ans": 1628,
      "tte": 1629,
      "teo": 1630,
      "178": 1631,
      "Id": 1632,
      "nx": 1633,
      "pb": 1634,
      "pc": 1635,
      "Ġ7": 1636,
      "400": 1637,
      "ose": 1638,
      "133": 1639,
      "eda": 1640,
      "127": 1641,
      "Go": 1642,
      "Tu": 1643,
      "Zam": 1644,
      "aN": 1645,
      "der": 1646,
      "gar": 1647,
      "iN": 1648,
      "yf": 1649,
      "Ġb": 1650,
      "ide": 1651,
      "226": 1652,
      "107": 1653,
      "135": 1654,
      "445": 1655,
      "Sr": 1656,
      "jd": 1657,
      "km": 1658,
      "ite": 1659,
      "html": 1660,
      "121": 1661,
      "Bh": 1662,
      "cal": 1663,
      "tN": 1664,
      "eth": 1665,
      "eed": 1666,
      "aea": 1667,
      "108": 1668,
      "Cwinnt": 1669,
      "Su": 1670,
      "lk": 1671,
      "qd": 1672,
      "ura": 1673,
      "rav": 1674,
      "160": 1675,
      "DB": 1676,
      "nA": 1677,
      "nj": 1678,
      "pub": 1679,
      "rj": 1680,
      "vila": 1681,
      "wg": 1682,
      "yg": 1683,
      "ori": 1684,
      "ella": 1685,
      "154": 1686,
      "Teruel": 1687,
      "Cd": 1688,
      "Ey": 1689,
      "Sego": 1690,
      "conf": 1691,
      "tA": 1692,
      "Ġf": 1693,
      "Ġp": 1694,
      "ley": 1695,
      "265": 1696,
      "105": 1697,
      "cust": 1698,
      "Palencia": 1699,
      "CWINNT": 1700,
      "Mi": 1701,
      "Tl": 1702,
      "est": 1703,
      "sen": 1704,
      "esh": 1705,
      "165": 1706,
      "delet": 1707,
      "Segovia": 1708,
      "470": 1709,
      "Sd": 1710,
      "sessionid": 1711,
      "xc": 1712,
      "Ġ5": 1713,
      "esi": 1714,
      "Lle": 1715,
      "Madrid": 1716,
      "fg": 1717,
      "oj": 1718,
      "tin": 1719,
      "enca": 1720,
      "179": 1721,
      "lE": 1722,
      "rk": 1723,
      "uk": 1724,
      "Ġw": 1725,
      "don": 1726,
      "290": 1727,
      "288": 1728,
      "156": 1729,
      "acker": 1730,
      "Cb": 1731,
      "fp": 1732,
      "hj": 1733,
      "nie": 1734,
      "183": 1735,
      "MA": 1736,
      "bj": 1737,
      "pg": 1738,
      "tos": 1739,
      "--+++++%": 1740,
      "Mont": 1741,
      "Od": 1742,
      "Ur": 1743,
      "cz": 1744,
      "mk": 1745,
      "tS": 1746,
      "Ġ8": 1747,
      "lik": 1748,
      "oso": 1749,
      "aI": 1750,
      "qm": 1751,
      "vl": 1752,
      "Ġ0": 1753,
      "str": 1754,
      "Rl": 1755,
      "fw": 1756,
      "gb": 1757,
      "hx": 1758,
      "vd": 1759,
      "406": 1760,
      "eoe": 1761,
      "195": 1762,
      "Bn": 1763,
      "Fautoexec": 1764,
      "yw": 1765,
      "zc": 1766,
      "Ġ4": 1767,
      "ono": 1768,
      "alo": 1769,
      "eot": 1770,
      "hom": 1771,
      "136": 1772,
      "=+&": 1773,
      "Ru": 1774,
      "pw": 1775,
      "Ġg": 1776,
      "ash": 1777,
      "ala": 1778,
      "LIKE": 1779,
      "126": 1780,
      "Bprocessing": 1781,
      "Cas": 1782,
      "Fb": 1783,
      "Hh": 1784,
      "Nh": 1785,
      "iframe": 1786,
      "mx": 1787,
      "nS": 1788,
      "qc": 1789,
      "reto": 1790,
      "220": 1791,
      "ita": 1792,
      "aeh": 1793,
      "Zamora": 1794,
      "+.": 1795,
      "124": 1796,
      "FWIN": 1797,
      "eD": 1798,
      "ky": 1799,
      "pf": 1800,
      "sq": 1801,
      "Ġ1": 1802,
      "254": 1803,
      "enl": 1804,
      "ples": 1805,
      "Ġ9": 1806,
      "tea": 1807,
      "193": 1808,
      "ETE": 1809,
      "Girona": 1810,
      "240": 1811,
      "Fvar": 1812,
      "Gr": 1813,
      "Mu": 1814,
      "meta": 1815,
      "anc": 1816,
      "ladol": 1817,
      "ivo": 1818,
      "DEL": 1819,
      "ladolid": 1820,
      "Rd": 1821,
      "Tc": 1822,
      "Tm": 1823,
      "ees": 1824,
      "sA": 1825,
      "++-": 1826,
      "nta": 1827,
      "stu": 1828,
      "390": 1829,
      "144": 1830,
      "Cuenca": 1831,
      "Navarra": 1832,
      "Ln": 1833,
      "Rr": 1834,
      "Soria": 1835,
      "fE": 1836,
      "fb": 1837,
      "279": 1838,
      "Valladolid": 1839,
      "Faccess": 1840,
      "Fusr": 1841,
      "Nu": 1842,
      "Pe": 1843,
      "Td": 1844,
      "aO": 1845,
      "her": 1846,
      "nI": 1847,
      "tet": 1848,
      "ux": 1849,
      "vc": 1850,
      "wb": 1851,
      "date": 1852,
      "176": 1853,
      "Ui": 1854,
      "bject": 1855,
      "285": 1856,
      "194": 1857,
      "DA": 1858,
      "Ty": 1859,
      "Ue": 1860,
      "ox": 1861,
      "qy": 1862,
      "255": 1863,
      "ons": 1864,
      "286": 1865,
      "198": 1866,
      "199": 1867,
      "exam": 1868,
      "Cc": 1869,
      "Flog": 1870,
      "Hr": 1871,
      "gmt": 1872,
      "eros": 1873,
      "orn": 1874,
      "243": 1875,
      "145": 1876,
      "229": 1877,
      "ER": 1878,
      "Ig": 1879,
      "dx": 1880,
      "hee": 1881,
      "iet": 1882,
      "283": 1883,
      "itt": 1884,
      "159": 1885,
      "186": 1886,
      "fram": 1887,
      "Lleida": 1888,
      "gona": 1889,
      "hS": 1890,
      "hT": 1891,
      "lz": 1892,
      "son": 1893,
      "rip": 1894,
      "163": 1895,
      "210": 1896,
      "Cg": 1897,
      "Hs": 1898,
      "Ic": 1899,
      "are": 1900,
      "eL": 1901,
      "fk": 1902,
      "fy": 1903,
      "jy": 1904,
      "uto": 1905,
      "Ġ3": 1906,
      "nti": 1907,
      "alt": 1908,
      "ang": 1909,
      "custom": 1910,
      "BLE": 1911,
      "Dm": 1912,
      "las": 1913,
      "rN": 1914,
      "ervices": 1915,
      "275": 1916,
      "219": 1917,
      "113": 1918,
      "Gran": 1919,
      "rA": 1920,
      "ĠN": 1921,
      "++--%": 1922,
      "arr": 1923,
      "276": 1924,
      "289": 1925,
      "sea": 1926,
      "197": 1927,
      "EDn": 1928,
      "115": 1929,
      "118": 1930,
      "Fy": 1931,
      "Ut": 1932,
      "bz": 1933,
      "hN": 1934,
      "hO": 1935,
      "kw": 1936,
      "nee": 1937,
      "reo": 1938,
      "259": 1939,
      "asi": 1940,
      "ris": 1941,
      "iti": 1942,
      "+++--%": 1943,
      "aS": 1944,
      "qw": 1945,
      "260": 1946,
      "106": 1947,
      "usu": 1948,
      "146": 1949,
      "490": 1950,
      "458": 1951,
      "TABLE": 1952,
      "474": 1953,
      "465": 1954,
      "tR": 1955,
      "vw": 1956,
      "esn": 1957,
      "+++++--%": 1958,
      "393": 1959,
      "148": 1960,
      "shell": 1961,
      "Bad": 1962,
      "Hd": 1963,
      "Tarra": 1964,
      "jf": 1965,
      "++++-": 1966,
      "ech": 1967,
      "230": 1968,
      "109": 1969,
      "upper": 1970,
      "Bc": 1971,
      "Fg": 1972,
      "USE": 1973,
      "Vil": 1974,
      "bE": 1975,
      "iI": 1976,
      "sI": 1977,
      "tI": 1978,
      "arch": 1979,
      "249": 1980,
      "169": 1981,
      "ceres": 1982,
      "FT": 1983,
      "Ftext": 1984,
      "Fuser": 1985,
      "Pr": 1986,
      "Sm": 1987,
      "Ye": 1988,
      "aA": 1989,
      "aM": 1990,
      "ble": 1991,
      "ger": 1992,
      "hA": 1993,
      "jc": 1994,
      "kg": 1995,
      "lj": 1996,
      "see": 1997,
      "tee": 1998,
      "uE": 1999,
      "zz": 2000,
      "278": 2001,
      "ieo": 2002,
      "+++++-": 2003,
      "703": 2004,
      "149": 2005,
      "111": 2006,
      "177": 2007,
      "DELETE": 2008,
      "720": 2009,
      "Ali": 2010,
      "Us": 2011,
      "aL": 2012,
      "iS": 2013,
      "nN": 2014,
      "296": 2015,
      "299": 2016,
      "403": 2017,
      "+++-": 2018,
      "Ap": 2019,
      "Los": 2020,
      "Ob": 2021,
      "kc": 2022,
      "let": 2023,
      "nR": 2024,
      "vm": 2025,
      "ĠS": 2026,
      "800": 2027,
      "806": 2028,
      "650": 2029,
      "aga": 2030,
      "Bbar": 2031,
      "Dd": 2032,
      "Gar": 2033,
      "Uo": 2034,
      "cx": 2035,
      "ĠE": 2036,
      "iei": 2037,
      "760": 2038,
      "Ffoo": 2039,
      "Tarragona": 2040,
      "128": 2041,
      "Can": 2042,
      "Cwww": 2043,
      "Df": 2044,
      "Oy": 2045,
      "eM": 2046,
      "een": 2047,
      "eit": 2048,
      "lT": 2049,
      "lee": 2050,
      "rx": 2051,
      "ull": 2052,
      "vp": 2053,
      "wz": 2054,
      "274": 2055,
      "2525": 2056,
      "cho": 2057,
      "188": 2058,
      "mdb": 2059,
      "374": 2060,
      "Cf": 2061,
      "Fhome": 2062,
      "SI": 2063,
      "Ser": 2064,
      "con": 2065,
      "det": 2066,
      "lq": 2067,
      "mz": 2068,
      "nat": 2069,
      "sur": 2070,
      "uj": 2071,
      "Ġq": 2072,
      "ali": 2073,
      "order": 2074,
      "158": 2075,
      "166": 2076,
      "790": 2077,
      "Alb": 2078,
      "BA": 2079,
      "dN": 2080,
      "gq": 2081,
      "oN": 2082,
      "oT": 2083,
      "px": 2084,
      "tD": 2085,
      "ale": 2086,
      "toe": 2087,
      "224": 2088,
      "ledo": 2089,
      "tei": 2090,
      "236": 2091,
      "Est": 2092,
      "SQ": 2093,
      "Tw": 2094,
      "aH": 2095,
      "dT": 2096,
      "sS": 2097,
      "uq": 2098,
      "zw": 2099,
      "Ġj": 2100,
      "rio": 2101,
      "408": 2102,
      "200": 2103,
      "167": 2104,
      "468": 2105,
      "INJ": 2106,
      "569": 2107,
      "Esp": 2108,
      "PAR": 2109,
      "aet": 2110,
      "kp": 2111,
      "nO": 2112,
      "san": 2113,
      "tH": 2114,
      "vf": 2115,
      "cis": 2116,
      "2540": 2117,
      "ade": 2118,
      "404": 2119,
      "218": 2120,
      "192": 2121,
      "769": 2122,
      "890": 2123,
      "ECTED": 2124,
      "INJECTED": 2125,
      "PARAM": 2126,
      "723": 2127,
      "CM": 2128,
      "Cp": 2129,
      "gE": 2130,
      "mq": 2131,
      "yb": 2132,
      "ĠO": 2133,
      "273": 2134,
      "295": 2135,
      "753": 2136,
      "300": 2137,
      "173": 2138,
      "Bw": 2139,
      "Gi": 2140,
      "Sc": 2141,
      "eW": 2142,
      "eY": 2143,
      "href": 2144,
      "ler": 2145,
      "mv": 2146,
      "oee": 2147,
      "rO": 2148,
      "Ġx": 2149,
      "Ġz": 2150,
      "stt": 2151,
      "759": 2152,
      "age": 2153,
      "+*+": 2154,
      "Dw": 2155,
      "Nd": 2156,
      "bO": 2157,
      "bea": 2158,
      "cT": 2159,
      "hen": 2160,
      "ier": 2161,
      "onmo": 2162,
      "ric": 2163,
      "atr": 2164,
      "dia": 2165,
      "245": 2166,
      "493": 2167,
      "By": 2168,
      "CC": 2169,
      "Ek": 2170,
      "Sl": 2171,
      "ien": 2172,
      "qf": 2173,
      "qp": 2174,
      "tO": 2175,
      "uA": 2176,
      "vy": 2177,
      "293": 2178,
      "294": 2179,
      "esr": 2180,
      "ats": 2181,
      "709": 2182,
      "useo": 2183,
      "896": 2184,
      "786": 2185,
      "master": 2186,
      "uela": 2187,
      "archivo": 2188,
      "Af": 2189,
      "Ant": 2190,
      "Bcat": 2191,
      "nH": 2192,
      "ron": 2193,
      "sH": 2194,
      "407": 2195,
      "264": 2196,
      "eoo": 2197,
      "396": 2198,
      "eao": 2199,
      "138": 2200,
      "755": 2201,
      "795": 2202,
      "450": 2203,
      "netpub": 2204,
      "122": 2205,
      "Dp": 2206,
      "Oj": 2207,
      "Par": 2208,
      "Ya": 2209,
      "fj": 2210,
      "iA": 2211,
      "iO": 2212,
      "xb": 2213,
      "dio": 2214,
      "ith": 2215,
      "745": 2216,
      "153": 2217,
      "700": 2218,
      "CWINDOWS": 2219,
      "Cy": 2220,
      "Ge": 2221,
      "cas": 2222,
      "eer": 2223,
      "eae": 2224,
      "kf": 2225,
      "ten": 2226,
      "xw": 2227,
      "red": 2228,
      "++++--%": 2229,
      "246": 2230,
      "hea": 2231,
      "196": 2232,
      "184": 2233,
      "796": 2234,
      "Juan": 2235,
      "Bm": 2236,
      "ES": 2237,
      "FU": 2238,
      "Gl": 2239,
      "Lh": 2240,
      "Ls": 2241,
      "Set": 2242,
      "aD": 2243,
      "fq": 2244,
      "gv": 2245,
      "het": 2246,
      "iel": 2247,
      "sU": 2248,
      "zy": 2249,
      "arm": 2250,
      "std": 2251,
      "284": 2252,
      "eco": 2253,
      "705": 2254,
      "Toledo": 2255,
      "DRO": 2256,
      "Fp": 2257,
      "Nl": 2258,
      "cE": 2259,
      "eU": 2260,
      "gT": 2261,
      "iR": 2262,
      "jp": 2263,
      "rR": 2264,
      "tU": 2265,
      "tes": 2266,
      "uT": 2267,
      "wor": 2268,
      "258": 2269,
      "els": 2270,
      "eng": 2271,
      "244": 2272,
      "191": 2273,
      "736": 2274,
      "799": 2275,
      "type": 2276,
      "onmouseo": 2277,
      "onmouseover": 2278,
      "Bp": 2279,
      "Cab": 2280,
      "SO": 2281,
      "TO": 2282,
      "cO": 2283,
      "cv": 2284,
      "eat": 2285,
      "tftp": 2286,
      "ĠT": 2287,
      "reg": 2288,
      "298": 2289,
      "ama": 2290,
      "tta": 2291,
      "213": 2292,
      "215": 2293,
      "749": 2294,
      "164": 2295,
      "899": 2296,
      "350": 2297,
      "datos": 2298,
      "Plza": 2299,
      "arios": 2300,
      "usuarios": 2301,
      "DROP": 2302,
      "dee": 2303,
      "hH": 2304,
      "rI": 2305,
      "rat": 2306,
      "uer": 2307,
      "Ġk": 2308,
      "Ġv": 2309,
      "ong": 2310,
      "etcat": 2311,
      "iea": 2312,
      "eoi": 2313,
      "743": 2314,
      "756": 2315,
      "Torre": 2316,
      "776": 2317,
      "BN": 2318,
      "CA": 2319,
      "Ej": 2320,
      "eas": 2321,
      "tL": 2322,
      "++&": 2323,
      "rei": 2324,
      "oro": 2325,
      "its": 2326,
      "ttt": 2327,
      "855": 2328,
      "600": 2329,
      "609": 2330,
      "496": 2331,
      "samples": 2332,
      "Az": 2333,
      "Cw": 2334,
      "Cant": 2335,
      "Dg": 2336,
      "EI": 2337,
      "Edocument": 2338,
      "Ip": 2339,
      "PU": 2340,
      "dS": 2341,
      "hI": 2342,
      "kz": 2343,
      "oS": 2344,
      "4040": 2345,
      "tti": 2346,
      "teh": 2347,
      "269": 2348,
      "708": 2349,
      "738": 2350,
      "455": 2351,
      "420": 2352,
      "CI": 2353,
      "Ex": 2354,
      "Jo": 2355,
      "Las": 2356,
      "aU": 2357,
      "fv": 2358,
      "sR": 2359,
      "van": 2360,
      "zf": 2361,
      "rey": 2362,
      "rez": 2363,
      "adi": 2364,
      "223": 2365,
      "746": 2366,
      "395": 2367,
      "859": 2368,
      "secreto": 2369,
      "AW": 2370,
      "Bstyle": 2371,
      "Mn": 2372,
      "Op": 2373,
      "Tp": 2374,
      "dll": 2375,
      "har": 2376,
      "hes": 2377,
      "wE": 2378,
      "wv": 2379,
      "nts": 2380,
      "sts": 2381,
      "emi": 2382,
      "aed": 2383,
      "sei": 2384,
      "aoe": 2385,
      "141": 2386,
      "305": 2387,
      "cmdshell": 2388,
      "Dy": 2389,
      "Hp": 2390,
      "Oc": 2391,
      "WE": 2392,
      "bk": 2393,
      "cA": 2394,
      "dI": 2395,
      "dbo": 2396,
      "lI": 2397,
      "len": 2398,
      "rS": 2399,
      "wT": 2400,
      "ystem": 2401,
      "elt": 2402,
      "esp": 2403,
      "209": 2404,
      "cante": 2405,
      "ajoz": 2406,
      "customer": 2407,
      "228": 2408,
      "319": 2409,
      "469": 2410,
      "CH": 2411,
      "Db": 2412,
      "Dc": 2413,
      "FM": 2414,
      "Fls": 2415,
      "Ped": 2416,
      "Rp": 2417,
      "Tf": 2418,
      "aes": 2419,
      "uS": 2420,
      "wj": 2421,
      "yv": 2422,
      "238": 2423,
      "nea": 2424,
      "758": 2425,
      "730": 2426,
      "798": 2427,
      "fox": 2428,
      "Badajoz": 2429,
      "Vo": 2430,
      "aW": 2431,
      "cq": 2432,
      "dar": 2433,
      "mj": 2434,
      "wq": 2435,
      "dea": 2436,
      "iol": 2437,
      "856": 2438,
      "498": 2439,
      "abria": 2440,
      "USERS": 2441,
      "119": 2442,
      "Bhttp": 2443,
      "Fcookie": 2444,
      "Je": 2445,
      "Mt": 2446,
      "Nc": 2447,
      "Ph": 2448,
      "Ps": 2449,
      "SW": 2450,
      "bv": 2451,
      "dA": 2452,
      "dR": 2453,
      "dv": 2454,
      "gz": 2455,
      "nL": 2456,
      "pk": 2457,
      "uv": 2458,
      "reh": 2459,
      "2578": 2460,
      "enh": 2461,
      "239": 2462,
      "214": 2463,
      "216": 2464,
      "scrip": 2465,
      "805": 2466,
      "359": 2467,
      "steal": 2468,
      "Fhacker": 2469,
      "example": 2470,
      "Fcookiesteal": 2471,
      "Ale": 2472,
      "CO": 2473,
      "Ml": 2474,
      "Nm": 2475,
      "Ros": 2476,
      "Villa": 2477,
      "ain": 2478,
      "cj": 2479,
      "eis": 2480,
      "hR": 2481,
      "qb": 2482,
      "sal": 2483,
      "ĠU": 2484,
      "eld": 2485,
      "cos": 2486,
      "irs": 2487,
      "233": 2488,
      "187": 2489,
      "750": 2490,
      "uesca": 2491,
      "Granada": 2492,
      "114": 2493,
      "Fv": 2494,
      "If": 2495,
      "Ix": 2496,
      "Mr": 2497,
      "Ms": 2498,
      "QL": 2499,
      "dO": 2500,
      "ras": 2501,
      "yk": 2502,
      "zp": 2503,
      "ntt": 2504,
      "ond": 2505,
      "ando": 2506,
      "tot": 2507,
      "268": 2508,
      "858": 2509,
      "206": 2510,
      "706": 2511,
      "895": 2512,
      "ST": 2513,
      "mE": 2514,
      "mT": 2515,
      "qg": 2516,
      "qj": 2517,
      "rH": 2518,
      "tor": 2519,
      "tie": 2520,
      "uO": 2521,
      "uR": 2522,
      "arn": 2523,
      "erto": 2524,
      "erra": 2525,
      "297": 2526,
      "ili": 2527,
      "eeu": 2528,
      "ieh": 2529,
      "248": 2530,
      "eai": 2531,
      "787": 2532,
      "464": 2533,
      "horas": 2534,
      "125": 2535,
      "EE": 2536,
      "Nv": 2537,
      "Sp": 2538,
      "aen": 2539,
      "bel": 2540,
      "eel": 2541,
      "kb": 2542,
      "lN": 2543,
      "vv": 2544,
      "401": 2545,
      "itn": 2546,
      "ttn": 2547,
      "157": 2548,
      "803": 2549,
      "605": 2550,
      "436": 2551,
      "BR": 2552,
      "Bf": 2553,
      "DT": 2554,
      "Ev": 2555,
      "Yn": 2556,
      "ise": 2557,
      "lO": 2558,
      "oO": 2559,
      "ote": 2560,
      "sO": 2561,
      "tat": 2562,
      "wx": 2563,
      "elect": 2564,
      "ami": 2565,
      "850": 2566,
      "707": 2567,
      "656": 2568,
      "438": 2569,
      "agu": 2570,
      "Cv": 2571,
      "Fz": 2572,
      "Huesca": 2573,
      "Im": 2574,
      "ito": 2575,
      "neo": 2576,
      "oH": 2577,
      "oR": 2578,
      "oet": 2579,
      "pv": 2580,
      "sL": 2581,
      "sat": 2582,
      "809": 2583,
      "463": 2584,
      "datab": 2585,
      "423": 2586,
      "410": 2587,
      "Cj": 2588,
      "Cpro": 2589,
      "Cdatab": 2590,
      "Iu": 2591,
      "Rm": 2592,
      "TE": 2593,
      "eQ": 2594,
      "gj": 2595,
      "lA": 2596,
      "mR": 2597,
      "qq": 2598,
      "uee": 2599,
      "wk": 2600,
      "xf": 2601,
      "ĠA": 2602,
      "Ġee": 2603,
      "ntn": 2604,
      "ile": 2605,
      "dev": 2606,
      "2562": 2607,
      "399": 2608,
      "857": 2609,
      "expor": 2610,
      "355": 2611,
      "488": 2612,
      "836": 2613,
      "ttofox": 2614,
      "Cprogra": 2615,
      "Cdatabase": 2616,
      "exporttofox": 2617,
      "exporttofoxpro": 2618,
      "476": 2619,
      "CE": 2620,
      "CT": 2621,
      "FR": 2622,
      "Gn": 2623,
      "Mh": 2624,
      "Mor": 2625,
      "Nf": 2626,
      "Ny": 2627,
      "bre": 2628,
      "ies": 2629,
      "she": 2630,
      "ece": 2631,
      "lia": 2632,
      "Real": 2633,
      "nei": 2634,
      "735": 2635,
      "pwdA": 2636,
      "453": 2637,
      "Fiis": 2638,
      "Alicante": 2639,
      "225": 2640,
      "DI": 2641,
      "Gs": 2642,
      "Hw": 2643,
      "Ow": 2644,
      "We": 2645,
      "ben": 2646,
      "cee": 2647,
      "mal": 2648,
      "oA": 2649,
      "rell": 2650,
      "enc": 2651,
      "eme": 2652,
      "137": 2653,
      "757": 2654,
      "eii": 2655,
      "ruz": 2656,
      "603": 2657,
      "rememberA": 2658,
      "690": 2659,
      "886": 2660,
      "449": 2661,
      "Aj": 2662,
      "Com": 2663,
      "FV": 2664,
      "Fw": 2665,
      "Fmail": 2666,
      "Gal": 2667,
      "Hl": 2668,
      "Lr": 2669,
      "Mer": 2670,
      "Sb": 2671,
      "Sy": 2672,
      "Ua": 2673,
      "Ul": 2674,
      "Un": 2675,
      "WZ": 2676,
      "Yl": 2677,
      "bx": 2678,
      "cet": 2679,
      "hat": 2680,
      "zg": 2681,
      "esm": 2682,
      "eca": 2683,
      "ioe": 2684,
      "398": 2685,
      "147": 2686,
      "898": 2687,
      "654": 2688,
      "117": 2689,
      "666": 2690,
      "Castell": 2691,
      "FInetpub": 2692,
      "FWINDOWS": 2693,
      "Fiissamples": 2694,
      "Ez": 2695,
      "For": 2696,
      "Md": 2697,
      "Yt": 2698,
      "ado": 2699,
      "bq": 2700,
      "cH": 2701,
      "fN": 2702,
      "lx": 2703,
      "oL": 2704,
      "rL": 2705,
      "sho": 2706,
      "vg": 2707,
      "ĠI": 2708,
      "ĠW": 2709,
      "ars": 2710,
      "277": 2711,
      "enr": 2712,
      "noe": 2713,
      "lio": 2714,
      "266": 2715,
      "hts": 2716,
      "203": 2717,
      "134": 2718,
      "807": 2719,
      "808": 2720,
      "358": 2721,
      "710": 2722,
      "AI": 2723,
      "AX": 2724,
      "Aw": 2725,
      "Bg": 2726,
      "EO": 2727,
      "FO": 2728,
      "Fer": 2729,
      "Ij": 2730,
      "Pn": 2731,
      "SZ": 2732,
      "TI": 2733,
      "bN": 2734,
      "bT": 2735,
      "fO": 2736,
      "heo": 2737,
      "wH": 2738,
      "wee": 2739,
      "esl": 2740,
      "mos": 2741,
      "402": 2742,
      "tts": 2743,
      "host": 2744,
      "ney": 2745,
      "isa": 2746,
      "353": 2747,
      "446": 2748,
      "BD": 2749,
      "Cz": 2750,
      "Eq": 2751,
      "Gt": 2752,
      "Rc": 2753,
      "Ry": 2754,
      "ast": 2755,
      "cN": 2756,
      "hL": 2757,
      "rdo": 2758,
      "uen": 2759,
      "onio": 2760,
      "root": 2761,
      "nion": 2762,
      "lie": 2763,
      "2399": 2764,
      "853": 2765,
      "208": 2766,
      "893": 2767,
      "306": 2768,
      "434": 2769,
      "909": 2770,
      "Lg": 2771,
      "Rh": 2772,
      "Wt": 2773,
      "dro": 2774,
      "eie": 2775,
      "gal": 2776,
      "jb": 2777,
      "mH": 2778,
      "mat": 2779,
      "ner": 2780,
      "wO": 2781,
      "into": 2782,
      "rie": 2783,
      "toa": 2784,
      "amar": 2785,
      "seh": 2786,
      "748": 2787,
      "ota": 2788,
      "766": 2789,
      "CxC": 2790,
      "escript": 2791,
      "Ax": 2792,
      "Dj": 2793,
      "Dk": 2794,
      "Fk": 2795,
      "Np": 2796,
      "Pt": 2797,
      "YW": 2798,
      "dem": 2799,
      "fre": 2800,
      "gI": 2801,
      "iH": 2802,
      "mI": 2803,
      "rtt": 2804,
      "zb": 2805,
      "ardo": 2806,
      "erh": 2807,
      "eeb": 2808,
      "eey": 2809,
      "irt": 2810,
      "soe": 2811,
      "heh": 2812,
      "iai": 2813,
      "205": 2814,
      "aoo": 2815,
      "456": 2816,
      "699": 2817,
      "483": 2818,
      "503": 2819,
      "368": 2820,
      "EDo": 2821,
      "CxBC": 2822,
      "._": 2823,
      "Ara": 2824,
      "CU": 2825,
      "Ck": 2826,
      "Cxml": 2827,
      "DS": 2828,
      "Dq": 2829,
      "FL": 2830,
      "FQ": 2831,
      "Gui": 2832,
      "Ld": 2833,
      "PZ": 2834,
      "eG": 2835,
      "gx": 2836,
      "gas": 2837,
      "oU": 2838,
      "pat": 2839,
      "rad": 2840,
      "rte": 2841,
      "seo": 2842,
      "ton": 2843,
      "zq": 2844,
      "Ġet": 2845,
      "nia": 2846,
      "liv": 2847,
      "leo": 2848,
      "sot": 2849,
      "132": 2850,
      "794": 2851,
      "606": 2852,
      "659": 2853,
      "112": 2854,
      "506": 2855,
      "337": 2856,
      "Cantabria": 2857,
      "AO": 2858,
      "Fran": 2859,
      "HI": 2860,
      "MI": 2861,
      "Nw": 2862,
      "QK": 2863,
      "Ws": 2864,
      "XX": 2865,
      "aat": 2866,
      "dan": 2867,
      "ein": 2868,
      "iae": 2869,
      "kk": 2870,
      "mes": 2871,
      "uI": 2872,
      "yE": 2873,
      "die": 2874,
      "coa": 2875,
      "217": 2876,
      "733": 2877,
      "308": 2878,
      "668": 2879,
      "478": 2880,
      "AT": 2881,
      "BE": 2882,
      "Bd": 2883,
      "CV": 2884,
      "Cboot": 2885,
      "Dz": 2886,
      "FW": 2887,
      "Nb": 2888,
      "Rf": 2889,
      "Sw": 2890,
      "ede": 2891,
      "far": 2892,
      "ist": 2893,
      "lor": 2894,
      "nes": 2895,
      "tae": 2896,
      "erl": 2897,
      "ors": 2898,
      "rot": 2899,
      "rias": 2900,
      "eec": 2901,
      "247": 2902,
      "499": 2903,
      "cantidadA": 2904,
      "sip": 2905,
      "xter": 2906,
      "437": 2907,
      "172": 2908,
      "Ak": 2909,
      "Cq": 2910,
      "Esc": 2911,
      "Hb": 2912,
      "JK": 2913,
      "MM": 2914,
      "Oz": 2915,
      "Um": 2916,
      "Yo": 2917,
      "ZJ": 2918,
      "dte": 2919,
      "ear": 2920,
      "gel": 2921,
      "gee": 2922,
      "han": 2923,
      "iL": 2924,
      "iro": 2925,
      "mel": 2926,
      "sin": 2927,
      "tit": 2928,
      "inas": 2929,
      "dora": 2930,
      "rist": 2931,
      "chi": 2932,
      "cpA": 2933,
      "sed": 2934,
      "iss": 2935,
      "rti": 2936,
      "894": 2937,
      "655": 2938,
      "AE": 2939,
      "CS": 2940,
      "Fq": 2941,
      "Hf": 2942,
      "Hm": 2943,
      "MU": 2944,
      "Om": 2945,
      "VY": 2946,
      "Wn": 2947,
      "Yh": 2948,
      "cI": 2949,
      "dba": 2950,
      "ean": 2951,
      "fI": 2952,
      "hte": 2953,
      "jar": 2954,
      "vj": 2955,
      "wM": 2956,
      "xg": 2957,
      "yT": 2958,
      "eral": 2959,
      "assthru": 2960,
      "rit": 2961,
      "dis": 2962,
      "itr": 2963,
      "aeu": 2964,
      "604": 2965,
      "309": 2966,
      "486": 2967,
      "Ciudad": 2968,
      "Dx": 2969,
      "Ga": 2970,
      "LG": 2971,
      "eP": 2972,
      "fx": 2973,
      "lan": 2974,
      "nen": 2975,
      "pE": 2976,
      "tra": 2977,
      "wR": 2978,
      "zk": 2979,
      "zar": 2980,
      "nth": 2981,
      "roe": 2982,
      "roup": 2983,
      "alla": 2984,
      "ilo": 2985,
      "che": 2986,
      "lea": 2987,
      "104": 2988,
      "eoa": 2989,
      "iot": 2990,
      "eaa": 2991,
      "768": 2992,
      "ueva": 2993,
      "500": 2994,
      "vers": 2995,
      "Plaza": 2996,
      "BO": 2997,
      "DZ": 2998,
      "Ftmp": 2999,
      "OCN": 3000,
      "RI": 3001,
      "VX": 3002,
      "Xo": 3003,
      "gN": 3004,
      "gk": 3005,
      "ian": 3006,
      "mit": 3007,
      "nW": 3008,
      "oI": 3009,
      "qE": 3010,
      "ure": 3011,
      "yz": 3012,
      "cil": 3013,
      "eew": 3014,
      "ntcA": 3015,
      "hei": 3016,
      "151": 3017,
      "rtn": 3018,
      "737": 3019,
      "697": 3020,
      "698": 3021,
      "uez": 3022,
      "Carrer": 3023,
      "BW": 3024,
      "Bript": 3025,
      "Cat": 3026,
      "DQ": 3027,
      "DU": 3028,
      "JN": 3029,
      "Jk": 3030,
      "LO": 3031,
      "MSS": 3032,
      "Rw": 3033,
      "Rx": 3034,
      "VV": 3035,
      "ael": 3036,
      "cU": 3037,
      "cer": 3038,
      "eX": 3039,
      "jq": 3040,
      "ore": 3041,
      "pz": 3042,
      "par": 3043,
      "ses": 3044,
      "uN": 3045,
      "yx": 3046,
      "ĠQ": 3047,
      "stn": 3048,
      "asn": 3049,
      "etl": 3050,
      "riz": 3051,
      "ems": 3052,
      "lit": 3053,
      "ament": 3054,
      "emailA": 3055,
      "ace": 3056,
      "otn": 3057,
      "763": 3058,
      "793": 3059,
      "494": 3060,
      "urn": 3061,
      "356": 3062,
      "484": 3063,
      "DBMSS": 3064,
      "DBMSSOCN": 3065,
      "055": 3066,
      "Agu": 3067,
      "Lk": 3068,
      "Og": 3069,
      "VQ": 3070,
      "Vt": 3071,
      "Yu": 3072,
      "Zo": 3073,
      "bH": 3074,
      "gon": 3075,
      "iU": 3076,
      "ire": 3077,
      "kN": 3078,
      "mN": 3079,
      "mee": 3080,
      "pj": 3081,
      "rne": 3082,
      "sM": 3083,
      "uid": 3084,
      "ult": 3085,
      "ĠG": 3086,
      "Ġeo": 3087,
      "esd": 3088,
      "atn": 3089,
      "too": 3090,
      "teu": 3091,
      "237": 3092,
      "102": 3093,
      "dniA": 3094,
      "soy": 3095,
      "acete": 3096,
      "oti": 3097,
      "142": 3098,
      "eha": 3099,
      "ima": 3100,
      "658": 3101,
      "784": 3102,
      "466": 3103,
      "433": 3104,
      "AH": 3105,
      "CY": 3106,
      "Don": 3107,
      "Fj": 3108,
      "Gw": 3109,
      "PG": 3110,
      "Pv": 3111,
      "SN": 3112,
      "Sg": 3113,
      "TN": 3114,
      "Zr": 3115,
      "eK": 3116,
      "fer": 3117,
      "iW": 3118,
      "iat": 3119,
      "mS": 3120,
      "pq": 3121,
      "rae": 3122,
      "tre": 3123,
      "wen": 3124,
      "ĠH": 3125,
      "rera": 3126,
      "etd": 3127,
      "anes": 3128,
      "234": 3129,
      "direccionA": 3130,
      "apellidosA": 3131,
      "erta": 3132,
      "hta": 3133,
      "162": 3134,
      "aoa": 3135,
      "897": 3136,
      "tah": 3137,
      "838": 3138,
      "906": 3139,
      "aje": 3140,
      "Dv": 3141,
      "FS": 3142,
      "Far": 3143,
      "QQ": 3144,
      "Rb": 3145,
      "Rv": 3146,
      "VW": 3147,
      "cam": 3148,
      "dec": 3149,
      "eC": 3150,
      "eos": 3151,
      "gO": 3152,
      "gan": 3153,
      "jE": 3154,
      "ont": 3155,
      "pN": 3156,
      "qx": 3157,
      "rU": 3158,
      "tad": 3159,
      "uH": 3160,
      "xE": 3161,
      "yq": 3162,
      "zj": 3163,
      "inn": 3164,
      "stor": 3165,
      "ety": 3166,
      "esia": 3167,
      "ande": 3168,
      "ema": 3169,
      "chez": 3170,
      "deo": 3171,
      "passwordA": 3172,
      "ned": 3173,
      "182": 3174,
      "797": 3175,
      "495": 3176,
      "696": 3177,
      "663": 3178,
      "093": 3179,
      "085": 3180,
      "BY": 3181,
      "CD": 3182,
      "Cer": 3183,
      "Con": 3184,
      "EM": 3185,
      "GN": 3186,
      "HU": 3187,
      "KK": 3188,
      "MK": 3189,
      "Mv": 3190,
      "Mat": 3191,
      "PA": 3192,
      "Tb": 3193,
      "Va": 3194,
      "Zc": 3195,
      "Zu": 3196,
      "bee": 3197,
      "ham": 3198,
      "hae": 3199,
      "nan": 3200,
      "wI": 3201,
      "xx": 3202,
      "ĠY": 3203,
      "272": 3204,
      "enida": 3205,
      "mot": 3206,
      "not": 3207,
      "uda": 3208,
      "tth": 3209,
      "ciudadA": 3210,
      "ioo": 3211,
      "863": 3212,
      "Maria": 3213,
      "Coru": 3214,
      "Avenida": 3215,
      "Albacete": 3216,
      "Bz": 3217,
      "FX": 3218,
      "JQ": 3219,
      "Ng": 3220,
      "Ov": 3221,
      "Rod": 3222,
      "SA": 3223,
      "Sz": 3224,
      "UU": 3225,
      "Vall": 3226,
      "aer": 3227,
      "bon": 3228,
      "eB": 3229,
      "eV": 3230,
      "gH": 3231,
      "ico": 3232,
      "kj": 3233,
      "mil": 3234,
      "qv": 3235,
      "rse": 3236,
      "ves": 3237,
      "ĠK": 3238,
      "292": 3239,
      "281": 3240,
      "esu": 3241,
      "lis": 3242,
      "led": 3243,
      "ted": 3244,
      "267": 3245,
      "sey": 3246,
      "181": 3247,
      "307": 3248,
      "695": 3249,
      "788": 3250,
      "aya": 3251,
      "833": 3252,
      "559": 3253,
      "336": 3254,
      "447": 3255,
      "evilla": 3256,
      "AY": 3257,
      "BK": 3258,
      "Ben": 3259,
      "CL": 3260,
      "Iw": 3261,
      "Mq": 3262,
      "Sj": 3263,
      "Tv": 3264,
      "WX": 3265,
      "gL": 3266,
      "hD": 3267,
      "oD": 3268,
      "qui": 3269,
      "rre": 3270,
      "ven": 3271,
      "xT": 3272,
      "yA": 3273,
      "als": 3274,
      "anz": 3275,
      "atl": 3276,
      "provinciaA": 3277,
      "iaa": 3278,
      "iah": 3279,
      "152": 3280,
      "lles": 3281,
      "untament": 3282,
      "096": 3283,
      "quer": 3284,
      "surname": 3285,
      "And": 3286,
      "BI": 3287,
      "Bq": 3288,
      "Cstyle": 3289,
      "DL": 3290,
      "DP": 3291,
      "GG": 3292,
      "JY": 3293,
      "Ko": 3294,
      "Mc": 3295,
      "Mm": 3296,
      "Mas": 3297,
      "ON": 3298,
      "QH": 3299,
      "SU": 3300,
      "Sk": 3301,
      "Tz": 3302,
      "Ud": 3303,
      "Uf": 3304,
      "XQ": 3305,
      "fz": 3306,
      "iG": 3307,
      "iie": 3308,
      "nne": 3309,
      "oea": 3310,
      "yj": 3311,
      "25252": 3312,
      "287": 3313,
      "adm": 3314,
      "etm": 3315,
      "deb": 3316,
      "laga": 3317,
      "754": 3318,
      "table": 3319,
      "653": 3320,
      "783": 3321,
      "505": 3322,
      "509": 3323,
      "AA": 3324,
      "BG": 3325,
      "Bb": 3326,
      "Cap": 3327,
      "FP": 3328,
      "Gm": 3329,
      "JW": 3330,
      "Jh": 3331,
      "Lf": 3332,
      "Lm": 3333,
      "MP": 3334,
      "OI": 3335,
      "Qt": 3336,
      "Rq": 3337,
      "Sf": 3338,
      "Uh": 3339,
      "aae": 3340,
      "bot": 3341,
      "cS": 3342,
      "ceo": 3343,
      "iit": 3344,
      "nD": 3345,
      "nor": 3346,
      "pH": 3347,
      "pT": 3348,
      "qz": 3349,
      "sC": 3350,
      "sit": 3351,
      "sae": 3352,
      "sse": 3353,
      "sne": 3354,
      "tZ": 3355,
      "wN": 3356,
      "ĠX": 3357,
      "ĠZ": 3358,
      "ind": 3359,
      "inr": 3360,
      "erd": 3361,
      "ntr": 3362,
      "asm": 3363,
      "ases": 3364,
      "291": 3365,
      "alm": 3366,
      "amt": 3367,
      "ied": 3368,
      "hoe": 3369,
      "ish": 3370,
      "eah": 3371,
      "edn": 3372,
      "459": 3373,
      "694": 3374,
      "ctor": 3375,
      "095": 3376,
      "BV": 3377,
      "DK": 3378,
      "Fstyle": 3379,
      "Lz": 3380,
      "ML": 3381,
      "MN": 3382,
      "PP": 3383,
      "Pd": 3384,
      "Pm": 3385,
      "Rom": 3386,
      "YY": 3387,
      "beh": 3388,
      "rK": 3389,
      "rin": 3390,
      "vq": 3391,
      "vel": 3392,
      "yI": 3393,
      "ress": 3394,
      "rol": 3395,
      "etu": 3396,
      "noo": 3397,
      "emt": 3398,
      "eep": 3399,
      "241": 3400,
      "isi": 3401,
      "uts": 3402,
      "131": 3403,
      "ayo": 3404,
      "834": 3405,
      "884": 3406,
      "Almer": 3407,
      "ajuntament": 3408,
      "Sierra": 3409,
      "Pont": 3410,
      "BQ": 3411,
      "BU": 3412,
      "CK": 3413,
      "Cin": 3414,
      "DX": 3415,
      "FK": 3416,
      "IZ": 3417,
      "Jos": 3418,
      "Jose": 3419,
      "Lc": 3420,
      "OE": 3421,
      "SX": 3422,
      "Sim": 3423,
      "Ten": 3424,
      "VG": 3425,
      "Wo": 3426,
      "Wu": 3427,
      "ding": 3428,
      "gri": 3429,
      "hel": 3430,
      "jw": 3431,
      "lM": 3432,
      "nY": 3433,
      "nel": 3434,
      "oen": 3435,
      "pet": 3436,
      "tK": 3437,
      "tan": 3438,
      "zT": 3439,
      "++++++++": 3440,
      "col": 3441,
      "amon": 3442,
      "char": 3443,
      "ttd": 3444,
      "212": 3445,
      "soft": 3446,
      "htn": 3447,
      "hot": 3448,
      "neu": 3449,
      "767": 3450,
      "rta": 3451,
      "nsrc": 3452,
      "aaa": 3453,
      "333": 3454,
      "363": 3455,
      "415": 3456,
      "BX": 3457,
      "Bv": 3458,
      "DH": 3459,
      "FZ": 3460,
      "HN": 3461,
      "Iv": 3462,
      "Pass": 3463,
      "Rg": 3464,
      "SY": 3465,
      "Sq": 3466,
      "Sx": 3467,
      "Ve": 3468,
      "Wf": 3469,
      "Wj": 3470,
      "bur": 3471,
      "dH": 3472,
      "das": 3473,
      "kM": 3474,
      "kv": 3475,
      "lL": 3476,
      "sos": 3477,
      "tG": 3478,
      "tio": 3479,
      "zO": 3480,
      "Ġ@": 3481,
      "ĠM": 3482,
      "reu": 3483,
      "orr": 3484,
      "251": 3485,
      "nio": 3486,
      "nis": 3487,
      "cont": 3488,
      "ttr": 3489,
      "sol": 3490,
      "hoi": 3491,
      "hoo": 3492,
      "854": 3493,
      "704": 3494,
      "say": 3495,
      "467": 3496,
      "dynsrc": 3497,
      "Camp": 3498,
      "version": 3499,
      "CJ": 3500,
      "Cobject": 3501,
      "Iy": 3502,
      "JH": 3503,
      "Lb": 3504,
      "Lw": 3505,
      "Men": 3506,
      "Oli": 3507,
      "Pin": 3508,
      "RA": 3509,
      "RQ": 3510,
      "Sol": 3511,
      "Sevilla": 3512,
      "Trav": 3513,
      "Ub": 3514,
      "Uz": 3515,
      "Vir": 3516,
      "ZZ": 3517,
      "hse": 3518,
      "jg": 3519,
      "jan": 3520,
      "kT": 3521,
      "nM": 3522,
      "vil": 3523,
      "wL": 3524,
      "zN": 3525,
      "doe": 3526,
      "eef": 3527,
      "eoh": 3528,
      "hed": 3529,
      "391": 3530,
      "204": 3531,
      "161": 3532,
      "764": 3533,
      "uta": 3534,
      "berg": 3535,
      "nai": 3536,
      "657": 3537,
      "837": 3538,
      "171": 3539,
      "illas": 3540,
      "CG": 3541,
      "CX": 3542,
      "DG": 3543,
      "DY": 3544,
      "EL": 3545,
      "Fel": 3546,
      "Hy": 3547,
      "IR": 3548,
      "Iq": 3549,
      "LN": 3550,
      "Llo": 3551,
      "Mf": 3552,
      "NOT": 3553,
      "OO": 3554,
      "PK": 3555,
      "PN": 3556,
      "RN": 3557,
      "YK": 3558,
      "YN": 3559,
      "Za": 3560,
      "bro": 3561,
      "iio": 3562,
      "jv": 3563,
      "kx": 3564,
      "kel": 3565,
      "nre": 3566,
      "oJ": 3567,
      "ral": 3568,
      "sX": 3569,
      "sar": 3570,
      "sas": 3571,
      "tQ": 3572,
      "vN": 3573,
      "yen": 3574,
      "zA": 3575,
      "inl": 3576,
      "cie": 3577,
      "asl": 3578,
      "++++*": 3579,
      "emn": 3580,
      "idn": 3581,
      "222": 3582,
      "iao": 3583,
      "397": 3584,
      "sha": 3585,
      "454": 3586,
      "888": 3587,
      "338": 3588,
      "binding": 3589,
      "+--": 3590,
      "Fes": 3591,
      "IT": 3592,
      "JZ": 3593,
      "Jv": 3594,
      "PH": 3595,
      "Pp": 3596,
      "Py": 3597,
      "SV": 3598,
      "Uu": 3599,
      "VK": 3600,
      "Wh": 3601,
      "Yb": 3602,
      "aQ": 3603,
      "eZ": 3604,
      "edo": 3605,
      "ehe": 3606,
      "gre": 3607,
      "jO": 3608,
      "jet": 3609,
      "ker": 3610,
      "mas": 3611,
      "rD": 3612,
      "sQ": 3613,
      "sie": 3614,
      "tne": 3615,
      "uL": 3616,
      "xN": 3617,
      "xk": 3618,
      "zx": 3619,
      "Ġes": 3620,
      "dom": 3621,
      "elr": 3622,
      "gia": 3623,
      "noi": 3624,
      "toi": 3625,
      "cher": 3626,
      "aef": 3627,
      "+++&": 3628,
      "+++++*": 3629,
      "--+--": 3630,
      "734": 3631,
      "eih": 3632,
      "shi": 3633,
      "naa": 3634,
      "771": 3635,
      "................": 3636,
      "FWINNT": 3637,
      "--+--+--%": 3638,
      "BH": 3639,
      "Bon": 3640,
      "GQ": 3641,
      "GW": 3642,
      "Huel": 3643,
      "IX": 3644,
      "JX": 3645,
      "MT": 3646,
      "Mb": 3647,
      "RH": 3648,
      "Sv": 3649,
      "TT": 3650,
      "Vd": 3651,
      "WA": 3652,
      "Wa": 3653,
      "Wd": 3654,
      "XZ": 3655,
      "Ys": 3656,
      "can": 3657,
      "eio": 3658,
      "fT": 3659,
      "hie": 3660,
      "jZ": 3661,
      "mA": 3662,
      "nZ": 3663,
      "nst": 3664,
      "nae": 3665,
      "sK": 3666,
      "tro": 3667,
      "tis": 3668,
      "vent": 3669,
      "wat": 3670,
      "xq": 3671,
      "ciano": 3672,
      "asp": 3673,
      "asr": 3674,
      "ello": 3675,
      "etween": 3676,
      "ecte": 3677,
      "lei": 3678,
      "dei": 3679,
      "tef": 3680,
      "raw": 3681,
      "soo": 3682,
      "heet": 3683,
      "aoh": 3684,
      "rtd": 3685,
      "rts": 3686,
      "edu": 3687,
      "608": 3688,
      "image": 3689,
      "EDas": 3690,
      "styles": 3691,
      "rense": 3692,
      "035": 3693,
      "048": 3694,
      "549": 3695,
      "719": 3696,
      "DJ": 3697,
      "EZ": 3698,
      "Gz": 3699,
      "HK": 3700,
      "Ke": 3701,
      "LZ": 3702,
      "Lp": 3703,
      "Ly": 3704,
      "Mk": 3705,
      "Ok": 3706,
      "Oq": 3707,
      "Rj": 3708,
      "Rk": 3709,
      "TR": 3710,
      "Tar": 3711,
      "UX": 3712,
      "WK": 3713,
      "Wi": 3714,
      "Wl": 3715,
      "bI": 3716,
      "bia": 3717,
      "cro": 3718,
      "cad": 3719,
      "dX": 3720,
      "dal": 3721,
      "eid": 3722,
      "gS": 3723,
      "hZ": 3724,
      "kar": 3725,
      "lS": 3726,
      "lae": 3727,
      "mon": 3728,
      "nar": 3729,
      "oli": 3730,
      "ott": 3731,
      "qT": 3732,
      "tnt": 3733,
      "utt": 3734,
      "wX": 3735,
      "xH": 3736,
      "ĠV": 3737,
      "eria": 3738,
      "adr": 3739,
      "enu": 3740,
      "noa": 3741,
      "nom": 3742,
      "atd": 3743,
      "atge": 3744,
      "dep": 3745,
      "sep": 3746,
      "ray": 3747,
      "som": 3748,
      "741": 3749,
      "cep": 3750,
      "ump": 3751,
      "ehi": 3752,
      "nss": 3753,
      "556": 3754,
      "Valle": 3755,
      "335": 3756,
      "443": 3757,
      "BB": 3758,
      "Cel": 3759,
      "Eet": 3760,
      "HQ": 3761,
      "Iz": 3762,
      "Jn": 3763,
      "MQ": 3764,
      "My": 3765,
      "Mol": 3766,
      "OH": 3767,
      "PQ": 3768,
      "TS": 3769,
      "Uc": 3770,
      "bA": 3771,
      "eor": 3772,
      "fS": 3773,
      "hG": 3774,
      "hto": 3775,
      "ior": 3776,
      "jx": 3777,
      "nQ": 3778,
      "oM": 3779,
      "oto": 3780,
      "pO": 3781,
      "pS": 3782,
      "pri": 3783,
      "rto": 3784,
      "sem": 3785,
      "tY": 3786,
      "vz": 3787,
      "wK": 3788,
      "weo": 3789,
      "xj": 3790,
      "rena": 3791,
      "rig": 3792,
      "load": 3793,
      "nod": 3794,
      "lig": 3795,
      "leg": 3796,
      "Rey": 3797,
      "heu": 3798,
      "731": 3799,
      "497": 3800,
      "595": 3801,
      "Puerto": 3802,
      "work": 3803,
      "315": 3804,
      "460": 3805,
      "718": 3806,
      "Bor": 3807,
      "Cruz": 3808,
      "Fid": 3809,
      "JT": 3810,
      "Ji": 3811,
      "Mal": 3812,
      "Pb": 3813,
      "Rob": 3814,
      "UZ": 3815,
      "Uy": 3816,
      "YL": 3817,
      "Yp": 3818,
      "ait": 3819,
      "aie": 3820,
      "cin": 3821,
      "cen": 3822,
      "dst": 3823,
      "eon": 3824,
      "gA": 3825,
      "ges": 3826,
      "hK": 3827,
      "iM": 3828,
      "oV": 3829,
      "pee": 3830,
      "rV": 3831,
      "sD": 3832,
      "sJ": 3833,
      "tal": 3834,
      "tns": 3835,
      "txt": 3836,
      "uM": 3837,
      "wS": 3838,
      "wer": 3839,
      "xA": 3840,
      "xO": 3841,
      "xv": 3842,
      "xz": 3843,
      "Ġ.": 3844,
      "282": 3845,
      "ilt": 3846,
      "emr": 3847,
      "iey": 3848,
      "261": 3849,
      "press": 3850,
      "211": 3851,
      "744": 3852,
      "ush": 3853,
      "304": 3854,
      "sii": 3855,
      "367": 3856,
      "nul": 3857,
      "chairs": 3858,
      "rdoba": 3859,
      "Huelva": 3860,
      "314": 3861,
      "=++": 3862,
      "Astu": 3863,
      "BS": 3864,
      "CF": 3865,
      "EA": 3866,
      "Eea": 3867,
      "GU": 3868,
      "Gy": 3869,
      "Gra": 3870,
      "IS": 3871,
      "Nk": 3872,
      "RK": 3873,
      "Rz": 3874,
      "UM": 3875,
      "Ug": 3876,
      "Uq": 3877,
      "YX": 3878,
      "Yi": 3879,
      "aX": 3880,
      "abo": 3881,
      "bes": 3882,
      "bla": 3883,
      "cte": 3884,
      "cea": 3885,
      "edi": 3886,
      "eia": 3887,
      "hne": 3888,
      "his": 3889,
      "ios": 3890,
      "jT": 3891,
      "jj": 3892,
      "kO": 3893,
      "mor": 3894,
      "mac": 3895,
      "oit": 3896,
      "oae": 3897,
      "rZ": 3898,
      "sW": 3899,
      "tri": 3900,
      "tec": 3901,
      "ula": 3902,
      "wid": 3903,
      "yS": 3904,
      "arro": 3905,
      "cit": 3906,
      "stl": 3907,
      "onr": 3908,
      "eny": 3909,
      "mont": 3910,
      "nos": 3911,
      "idh": 3912,
      "ams": 3913,
      "osh": 3914,
      "207": 3915,
      "uti": 3916,
      "berto": 3917,
      "gov": 3918,
      "aul": 3919,
      "693": 3920,
      "887": 3921,
      "Ourense": 3922,
      "ackersip": 3923,
      "Pedro": 3924,
      "Asturias": 3925,
      "-_": 3926,
      "377": 3927,
      "AD": 3928,
      "BL": 3929,
      "CZ": 3930,
      "EH": 3931,
      "Fas": 3932,
      "JE": 3933,
      "Jp": 3934,
      "LV": 3935,
      "Mon": 3936,
      "Mig": 3937,
      "OV": 3938,
      "Pq": 3939,
      "Per": 3940,
      "Qe": 3941,
      "RL": 3942,
      "RT": 3943,
      "SC": 3944,
      "Up": 3945,
      "WQ": 3946,
      "Wk": 3947,
      "YZ": 3948,
      "aV": 3949,
      "cre": 3950,
      "fH": 3951,
      "fession": 3952,
      "iso": 3953,
      "lst": 3954,
      "nC": 3955,
      "nU": 3956,
      "oer": 3957,
      "oeo": 3958,
      "pes": 3959,
      "rri": 3960,
      "sZ": 3961,
      "sno": 3962,
      "ust": 3963,
      "ueh": 3964,
      "wZ": 3965,
      "zv": 3966,
      "zal": 3967,
      "orh": 3968,
      "roi": 3969,
      "anda": 3970,
      "irr": 3971,
      "ieu": 3972,
      "aeb": 3973,
      "aez": 3974,
      "+++*": 3975,
      "ots": 3976,
      "express": 3977,
      "utn": 3978,
      "eds": 3979,
      "edra": 3980,
      "saa": 3981,
      "trs": 3982,
      "903": 3983,
      "000": 3984,
      "Camino": 3985,
      "fessional": 3986,
      "expression": 3987,
      "475": 3988,
      "674": 3989,
      "BZ": 3990,
      "BET": 3991,
      "Dscript": 3992,
      "Dom": 3993,
      "Djavascript": 3994,
      "Eee": 3995,
      "Fis": 3996,
      "Gg": 3997,
      "PO": 3998,
      "Pg": 3999,
      "Por": 4000,
      "Pere": 4001,
      "Wm": 4002,
      "Yr": 4003,
      "Zt": 4004,
      "aas": 4005,
      "ias": 4006,
      "iri": 4007,
      "jI": 4008,
      "kE": 4009,
      "lH": 4010,
      "mie": 4011,
      "mea": 4012,
      "nnt": 4013,
      "nso": 4014,
      "pA": 4015,
      "pis": 4016,
      "qH": 4017,
      "ril": 4018,
      "tC": 4019,
      "tht": 4020,
      "ute": 4021,
      "vis": 4022,
      "wet": 4023,
      "wei": 4024,
      "zE": 4025,
      "Ġ_": 4026,
      "Ġte": 4027,
      "enm": 4028,
      "anco": 4029,
      "logi": 4030,
      "idt": 4031,
      "eck": 4032,
      "mbra": 4033,
      "232": 4034,
      "nef": 4035,
      "oth": 4036,
      "394": 4037,
      "eares": 4038,
      "aod": 4039,
      "eig": 4040,
      "eix": 4041,
      "edr": 4042,
      "ehr": 4043,
      "sah": 4044,
      "Carret": 4045,
      "FAz": 4046,
      "WEEN": 4047,
      "BETWEEN": 4048,
      "014": 4049,
      "339": 4050,
      "989": 4051,
      "Art": 4052,
      "Bscript": 4053,
      "FJ": 4054,
      "FY": 4055,
      "Fet": 4056,
      "FECT": 4057,
      "FION": 4058,
      "GH": 4059,
      "Gb": 4060,
      "JV": 4061,
      "Jy": 4062,
      "Ki": 4063,
      "LA": 4064,
      "PE": 4065,
      "PW": 4066,
      "PX": 4067,
      "Pc": 4068,
      "Sil": 4069,
      "TH": 4070,
      "Tq": 4071,
      "aan": 4072,
      "bru": 4073,
      "dad": 4074,
      "eho": 4075,
      "gR": 4076,
      "ido": 4077,
      "jR": 4078,
      "jU": 4079,
      "kQ": 4080,
      "kU": 4081,
      "oZ": 4082,
      "pI": 4083,
      "tM": 4084,
      "tX": 4085,
      "tse": 4086,
      "tao": 4087,
      "wA": 4088,
      "yH": 4089,
      "Ġit": 4090,
      "Ġea": 4091,
      "ntl": 4092,
      "onload": 4093,
      "etf": 4094,
      "etg": 4095,
      "enz": 4096,
      "anel": 4097,
      "moe": 4098,
      "eeg": 4099,
      "deh": 4100,
      "aey": 4101,
      "ioa": 4102,
      "seu": 4103,
      "sou": 4104,
      "neh": 4105,
      "aoi": 4106,
      "gol": 4107,
      "607": 4108,
      "taa": 4109,
      "303": 4110,
      "ssn": 4111,
      "aii": 4112,
      "ooa": 4113,
      "xty": 4114,
      "555": 4115,
      "900": 4116,
      "568": 4117,
      "Casas": 4118,
      "Guip": 4119,
      "FAzcoa": 4120,
      "489": 4121,
      "BM": 4122,
      "Bat": 4123,
      "CW": 4124,
      "GZ": 4125,
      "Gen": 4126,
      "Her": 4127,
      "LK": 4128,
      "Of": 4129,
      "Ox": 4130,
      "Seg": 4131,
      "Tg": 4132,
      "Uw": 4133,
      "VE": 4134,
      "VZ": 4135,
      "Xh": 4136,
      "YT": 4137,
      "Yc": 4138,
      "bR": 4139,
      "iD": 4140,
      "iZ": 4141,
      "jos": 4142,
      "kq": 4143,
      "lem": 4144,
      "mad": 4145,
      "nV": 4146,
      "oes": 4147,
      "pU": 4148,
      "qQ": 4149,
      "sim": 4150,
      "tia": 4151,
      "trt": 4152,
      "uD": 4153,
      "vE": 4154,
      "ĠR": 4155,
      "Ġre": 4156,
      "Ġen": 4157,
      "dot": 4158,
      "roo": 4159,
      "adt": 4160,
      "etb": 4161,
      "anm": 4162,
      "anueva": 4163,
      "atm": 4164,
      "ecto": 4165,
      "cast": 4166,
      "aew": 4167,
      "eod": 4168,
      "raa": 4169,
      "rah": 4170,
      "rao": 4171,
      "otl": 4172,
      "392": 4173,
      "usa": 4174,
      "ehs": 4175,
      "nah": 4176,
      "pwdump": 4177,
      "491": 4178,
      "651": 4179,
      "haa": 4180,
      "508": 4181,
      "664": 4182,
      "054": 4183,
      "values": 4184,
      "Baleares": 4185,
      "Antonio": 4186,
      "Francis": 4187,
      "327": 4188,
      "419": 4189,
      "Ang": 4190,
      "CQ": 4191,
      "Fre": 4192,
      "Fal": 4193,
      "GK": 4194,
      "Gf": 4195,
      "Gh": 4196,
      "IQ": 4197,
      "Lau": 4198,
      "PL": 4199,
      "Pui": 4200,
      "Qm": 4201,
      "UL": 4202,
      "WY": 4203,
      "Yd": 4204,
      "aZ": 4205,
      "aai": 4206,
      "bS": 4207,
      "cR": 4208,
      "cls": 4209,
      "dM": 4210,
      "dre": 4211,
      "eem": 4212,
      "eir": 4213,
      "eht": 4214,
      "fR": 4215,
      "gW": 4216,
      "hM": 4217,
      "hss": 4218,
      "iin": 4219,
      "jon": 4220,
      "jas": 4221,
      "kH": 4222,
      "nK": 4223,
      "nse": 4224,
      "oK": 4225,
      "pan": 4226,
      "rnt": 4227,
      "uit": 4228,
      "vH": 4229,
      "vx": 4230,
      "Ġtt": 4231,
      "rent": 4232,
      "ario": 4233,
      "cial": 4234,
      "rom": 4235,
      "eln": 4236,
      "chil": 4237,
      "itu": 4238,
      "ttp": 4239,
      "ledb": 4240,
      "ving": 4241,
      "lah": 4242,
      "eol": 4243,
      "iont": 4244,
      "rac": 4245,
      "soi": 4246,
      "htr": 4247,
      "utu": 4248,
      "457": 4249,
      "tih": 4250,
      "995": 4251,
      "display": 4252,
      "utoexec": 4253,
      "Carretera": 4254,
      "865": 4255,
      "869": 4256,
      "=.%": 4257,
      "Aq": 4258,
      "Bx": 4259,
      "Cue": 4260,
      "Die": 4261,
      "EU": 4262,
      "Fro": 4263,
      "FRioja": 4264,
      "GO": 4265,
      "GV": 4266,
      "Gx": 4267,
      "IE": 4268,
      "IH": 4269,
      "Isa": 4270,
      "Illes": 4271,
      "Jl": 4272,
      "Jm": 4273,
      "NN": 4274,
      "Pf": 4275,
      "Pk": 4276,
      "QO": 4277,
      "Raf": 4278,
      "UE": 4279,
      "Ux": 4280,
      "Wb": 4281,
      "XN": 4282,
      "Xp": 4283,
      "Xt": 4284,
      "Yy": 4285,
      "Zi": 4286,
      "aY": 4287,
      "cri": 4288,
      "dK": 4289,
      "gat": 4290,
      "gtt": 4291,
      "hno": 4292,
      "jN": 4293,
      "lat": 4294,
      "mO": 4295,
      "mZ": 4296,
      "mae": 4297,
      "nhe": 4298,
      "nrt": 4299,
      "oed": 4300,
      "qN": 4301,
      "ring": 4302,
      "sre": 4303,
      "tst": 4304,
      "the": 4305,
      "ueo": 4306,
      "use": 4307,
      "ĠC": 4308,
      "ĠJ": 4309,
      "orio": 4310,
      "gio": 4311,
      "atc": 4312,
      "atab": 4313,
      "idi": 4314,
      "eeq": 4315,
      "nir": 4316,
      "osc": 4317,
      "101": 4318,
      "242": 4319,
      "hoa": 4320,
      "701": 4321,
      "ceh": 4322,
      "751": 4323,
      "752": 4324,
      "eim": 4325,
      "791": 4326,
      "nsd": 4327,
      "892": 4328,
      "ood": 4329,
      "undo": 4330,
      "999": 4331,
      "ROW": 4332,
      "SET": 4333,
      "Castro": 4334,
      "+.*%": 4335,
      "Travesia": 4336,
      "086": 4337,
      "376": 4338,
      "560": 4339,
      "639": 4340,
      "680": 4341,
      "=*": 4342,
      "Bpwd": 4343,
      "Col": 4344,
      "Cbody": 4345,
      "DDBMSSOCN": 4346,
      "Flo": 4347,
      "Fat": 4348,
      "GT": 4349,
      "GX": 4350,
      "Ka": 4351,
      "LT": 4352,
      "Mir": 4353,
      "OA": 4354,
      "PR": 4355,
      "Pad": 4356,
      "TOP": 4357,
      "UQ": 4358,
      "VH": 4359,
      "Viz": 4360,
      "YQ": 4361,
      "_%": 4362,
      "bas": 4363,
      "bos": 4364,
      "cM": 4365,
      "dL": 4366,
      "eal": 4367,
      "fM": 4368,
      "fee": 4369,
      "hJ": 4370,
      "hre": 4371,
      "iar": 4372,
      "ica": 4373,
      "jz": 4374,
      "jes": 4375,
      "kS": 4376,
      "lto": 4377,
      "mK": 4378,
      "nP": 4379,
      "non": 4380,
      "ole": 4381,
      "rP": 4382,
      "sst": 4383,
      "tV": 4384,
      "tW": 4385,
      "tno": 4386,
      "tem": 4387,
      "tsa": 4388,
      "tsn": 4389,
      "vK": 4390,
      "wil": 4391,
      "xQ": 4392,
      "yee": 4393,
      "yne": 4394,
      "Ġae": 4395,
      "sthr": 4396,
      "orca": 4397,
      "etwork": 4398,
      "nig": 4399,
      "oss": 4400,
      "teg": 4401,
      "231": 4402,
      "ioh": 4403,
      "747": 4404,
      "isl": 4405,
      "762": 4406,
      "nsn": 4407,
      "691": 4408,
      "sss": 4409,
      "hai": 4410,
      "task": 4411,
      "667": 4412,
      "882": 4413,
      "908": 4414,
      "868": 4415,
      "ddress": 4416,
      "Martin": 4417,
      "barcelona": 4418,
      "Avda": 4419,
      "Loledb": 4420,
      "ENROW": 4421,
      "OPENROW": 4422,
      "BAddress": 4423,
      "SQLoledb": 4424,
      "BNetwork": 4425,
      "Passatge": 4426,
      "Francisco": 4427,
      "OPENROWSET": 4428,
      "080": 4429,
      "065": 4430,
      "715": 4431,
      "BEXEC": 4432,
      "Eeo": 4433,
      "Fan": 4434,
      "Fee": 4435,
      "Fxml": 4436,
      "Gq": 4437,
      "Ik": 4438,
      "JI": 4439,
      "Kr": 4440,
      "Nx": 4441,
      "Tx": 4442,
      "WV": 4443,
      "YH": 4444,
      "_-": 4445,
      "aot": 4446,
      "bK": 4447,
      "cL": 4448,
      "cap": 4449,
      "cur": 4450,
      "fit": 4451,
      "hC": 4452,
      "iia": 4453,
      "ifram": 4454,
      "jM": 4455,
      "lC": 4456,
      "lD": 4457,
      "lre": 4458,
      "mag": 4459,
      "oeh": 4460,
      "pal": 4461,
      "qA": 4462,
      "qI": 4463,
      "qU": 4464,
      "ques": 4465,
      "rG": 4466,
      "rno": 4467,
      "sP": 4468,
      "srt": 4469,
      "tP": 4470,
      "tle": 4471,
      "uet": 4472,
      "wY": 4473,
      "ĠL": 4474,
      "Ġan": 4475,
      "Ġto": 4476,
      "Ġeh": 4477,
      "indo": 4478,
      "erg": 4479,
      "doo": 4480,
      "ston": 4481,
      "asu": 4482,
      "elet": 4483,
      "etti": 4484,
      "anos": 4485,
      "eml": 4486,
      "dit": 4487,
      "2335": 4488,
      "lao": 4489,
      "seg": 4490,
      "carritoany": 4491,
      "nez": 4492,
      "201": 4493,
      "ced": 4494,
      "eic": 4495,
      "ehn": 4496,
      "nsa": 4497,
      "rup": 4498,
      "tai": 4499,
      "301": 4500,
      "ssl": 4501,
      "ltn": 4502,
      "aih": 4503,
      "ooe": 4504,
      "ahn": 4505,
      "558": 4506,
      "make": 4507,
      "uname": 4508,
      "777": 4509,
      "593": 4510,
      "847": 4511,
      "ORD": 4512,
      "Doctor": 4513,
      "webtask": 4514,
      "makewebtask": 4515,
      "323": 4516,
      "365": 4517,
      "348": 4518,
      "416": 4519,
      "480": 4520,
      "726": 4521,
      "Adel": 4522,
      "DM": 4523,
      "Fin": 4524,
      "Ftelnet": 4525,
      "IU": 4526,
      "PAS": 4527,
      "SL": 4528,
      "Tre": 4529,
      "Teo": 4530,
      "UR": 4531,
      "Vr": 4532,
      "YI": 4533,
      "YV": 4534,
      "Zar": 4535,
      "beo": 4536,
      "cX": 4537,
      "cZ": 4538,
      "cli": 4539,
      "dY": 4540,
      "dZ": 4541,
      "fes": 4542,
      "hnt": 4543,
      "iK": 4544,
      "kA": 4545,
      "mL": 4546,
      "nG": 4547,
      "nas": 4548,
      "ost": 4549,
      "ode": 4550,
      "oie": 4551,
      "pte": 4552,
      "pot": 4553,
      "pea": 4554,
      "put": 4555,
      "sB": 4556,
      "snt": 4557,
      "sor": 4558,
      "vO": 4559,
      "vas": 4560,
      "war": 4561,
      "zL": 4562,
      "++*": 4563,
      "inm": 4564,
      "ines": 4565,
      "onc": 4566,
      "rigo": 4567,
      "emh": 4568,
      "toh": 4569,
      "coll": 4570,
      "itm": 4571,
      "aeg": 4572,
      "eob": 4573,
      "soa": 4574,
      "htd": 4575,
      "hth": 4576,
      "iac": 4577,
      "2062": 4578,
      "nsi": 4579,
      "492": 4580,
      "hah": 4581,
      "lti": 4582,
      "781": 4583,
      "782": 4584,
      "nrh": 4585,
      "Clink": 4586,
      "Leon": 4587,
      "Campo": 4588,
      "Font": 4589,
      "SWORD": 4590,
      "Virgen": 4591,
      "about": 4592,
      "PASSWORD": 4593,
      "-.": 4594,
      "018": 4595,
      "030": 4596,
      "069": 4597,
      "386": 4598,
      "422": 4599,
      "621": 4600,
      "716": 4601,
      "910": 4602,
      "AQ": 4603,
      "Des": 4604,
      "EW": 4605,
      "Fen": 4606,
      "Fie": 4607,
      "MH": 4608,
      "PY": 4609,
      "RZ": 4610,
      "WT": 4611,
      "Wr": 4612,
      "Wx": 4613,
      "YJ": 4614,
      "bil": 4615,
      "bus": 4616,
      "cne": 4617,
      "dQ": 4618,
      "eam": 4619,
      "eue": 4620,
      "fon": 4621,
      "fea": 4622,
      "fed": 4623,
      "hU": 4624,
      "iV": 4625,
      "jX": 4626,
      "meo": 4627,
      "nX": 4628,
      "nno": 4629,
      "nho": 4630,
      "nna": 4631,
      "oX": 4632,
      "oat": 4633,
      "oot": 4634,
      "pL": 4635,
      "pst": 4636,
      "qS": 4637,
      "ram": 4638,
      "rle": 4639,
      "sio": 4640,
      "tso": 4641,
      "uae": 4642,
      "vera": 4643,
      "yO": 4644,
      "zJ": 4645,
      "zV": 4646,
      "arh": 4647,
      "ery": 4648,
      "erte": 4649,
      "esy": 4650,
      "rii": 4651,
      "mol": 4652,
      "osr": 4653,
      "chu": 4654,
      "irn": 4655,
      "apa": 4656,
      "apla": 4657,
      "ded": 4658,
      "tey": 4659,
      "laa": 4660,
      "hew": 4661,
      "otd": 4662,
      "isn": 4663,
      "isr": 4664,
      "aol": 4665,
      "aoy": 4666,
      "ehh": 4667,
      "hay": 4668,
      "cti": 4669,
      "nnn": 4670,
      "905": 4671,
      "334": 4672,
      "hiper": 4673,
      "Villal": 4674,
      ".-": 4675,
      "066": 4676,
      "385": 4677,
      "379": 4678,
      "418": 4679,
      "519": 4680,
      "685": 4681,
      "675": 4682,
      "724": 4683,
      "985": 4684,
      "976": 4685,
      "EK": 4686,
      "Fnt": 4687,
      "Fto": 4688,
      "Fse": 4689,
      "GJ": 4690,
      "HL": 4691,
      "Hc": 4692,
      "Hq": 4693,
      "Jb": 4694,
      "LS": 4695,
      "Lj": 4696,
      "Mur": 4697,
      "PV": 4698,
      "Pw": 4699,
      "RV": 4700,
      "Tra": 4701,
      "UO": 4702,
      "Usa": 4703,
      "Urb": 4704,
      "Ver": 4705,
      "WN": 4706,
      "ZX": 4707,
      "aos": 4708,
      "aia": 4709,
      "bte": 4710,
      "bra": 4711,
      "dB": 4712,
      "dV": 4713,
      "gsound": 4714,
      "hht": 4715,
      "iC": 4716,
      "iX": 4717,
      "jA": 4718,
      "kin": 4719,
      "lad": 4720,
      "mah": 4721,
      "nin": 4722,
      "pK": 4723,
      "pR": 4724,
      "qO": 4725,
      "qk": 4726,
      "rY": 4727,
      "sG": 4728,
      "sY": 4729,
      "sil": 4730,
      "tB": 4731,
      "tde": 4732,
      "uU": 4733,
      "vA": 4734,
      "vX": 4735,
      "vk": 4736,
      "vid": 4737,
      "wel": 4738,
      "wal": 4739,
      "zM": 4740,
      "zan": 4741,
      "Ġ-": 4742,
      "Ġne": 4743,
      "Ġei": 4744,
      "resh": 4745,
      "ingo": 4746,
      "erp": 4747,
      "eras": 4748,
      "ntd": 4749,
      "ony": 4750,
      "ads": 4751,
      "atf": 4752,
      "atw": 4753,
      "nit": 4754,
      "coo": 4755,
      "lai": 4756,
      "lava": 4757,
      "hey": 4758,
      "bol": 4759,
      "nsl": 4760,
      "ruc": 4761,
      "ime": 4762,
      "embers": 4763,
      "nda": 4764,
      "nds": 4765,
      "ssi": 4766,
      "sysd": 4767,
      "hrh": 4768,
      "hrs": 4769,
      "iii": 4770,
      "nrs": 4771,
      "Pasaje": 4772,
      "uiv": 4773,
      "596": 4774,
      "eba": 4775,
      "Alcal": 4776,
      "384": 4777,
      "ubi": 4778,
      "utdown": 4779,
      "livescript": 4780,
      "Miguel": 4781,
      "atabases": 4782,
      "sysdatabases": 4783,
      "-+": 4784,
      "320": 4785,
      "378": 4786,
      "610": 4787,
      "774": 4788,
      "930": 4789,
      "Cri": 4790,
      "DR": 4791,
      "EV": 4792,
      "EY": 4793,
      "Fds": 4794,
      "Fres": 4795,
      "GS": 4796,
      "Gk": 4797,
      "Hg": 4798,
      "ID": 4799,
      "Jg": 4800,
      "KT": 4801,
      "May": 4802,
      "PI": 4803,
      "Qa": 4804,
      "Qh": 4805,
      "RW": 4806,
      "UK": 4807,
      "UV": 4808,
      "bie": 4809,
      "dun": 4810,
      "eil": 4811,
      "fle": 4812,
      "gil": 4813,
      "jL": 4814,
      "lX": 4815,
      "lam": 4816,
      "msp": 4817,
      "oon": 4818,
      "pad": 4819,
      "rst": 4820,
      "rni": 4821,
      "tJ": 4822,
      "tna": 4823,
      "uK": 4824,
      "vS": 4825,
      "vT": 4826,
      "vY": 4827,
      "xL": 4828,
      "xZ": 4829,
      "yU": 4830,
      "yX": 4831,
      "yet": 4832,
      "ĠD": 4833,
      "Ġer": 4834,
      "inter": 4835,
      "cii": 4836,
      "roy": 4837,
      "espa": 4838,
      "ank": 4839,
      "lot": 4840,
      "dii": 4841,
      "nii": 4842,
      "osi": 4843,
      "ity": 4844,
      "leh": 4845,
      "deu": 4846,
      "ief": 4847,
      "262": 4848,
      "aep": 4849,
      "hol": 4850,
      "new": 4851,
      "uss": 4852,
      "snh": 4853,
      "ool": 4854,
      "abl": 4855,
      "iga": 4856,
      "Mart": 4857,
      "Ciframe": 4858,
      "illos": 4859,
      "Villar": 4860,
      "stylesheet": 4861,
      ".@": 4862,
      "060": 4863,
      "321": 4864,
      "318": 4865,
      "344": 4866,
      "473": 4867,
      "448": 4868,
      "510": 4869,
      "524": 4870,
      "590": 4871,
      "599": 4872,
      "839": 4873,
      "Fne": 4874,
      "Fig": 4875,
      "Gd": 4876,
      "Gp": 4877,
      "Hk": 4878,
      "IC": 4879,
      "IY": 4880,
      "Js": 4881,
      "LL": 4882,
      "MR": 4883,
      "MY": 4884,
      "Mg": 4885,
      "NS": 4886,
      "NX": 4887,
      "NZ": 4888,
      "Px": 4889,
      "Pet": 4890,
      "QU": 4891,
      "Ron": 4892,
      "TW": 4893,
      "Tee": 4894,
      "Vq": 4895,
      "WG": 4896,
      "WU": 4897,
      "aon": 4898,
      "bert": 4899,
      "bao": 4900,
      "dum": 4901,
      "eF": 4902,
      "fL": 4903,
      "fY": 4904,
      "fet": 4905,
      "fan": 4906,
      "fte": 4907,
      "feo": 4908,
      "gU": 4909,
      "lte": 4910,
      "mis": 4911,
      "med": 4912,
      "meh": 4913,
      "nad": 4914,
      "nao": 4915,
      "oQ": 4916,
      "pX": 4917,
      "wes": 4918,
      "yse": 4919,
      "zX": 4920,
      "Ġis": 4921,
      "Ġtn": 4922,
      "stin": 4923,
      "orl": 4924,
      "ones": 4925,
      "roh": 4926,
      "enla": 4927,
      "rim": 4928,
      "anl": 4929,
      "anr": 4930,
      "gis": 4931,
      "eek": 4932,
      "diz": 4933,
      "ecr": 4934,
      "lau": 4935,
      "iod": 4936,
      "neg": 4937,
      "aux": 4938,
      "792": 4939,
      "nsf": 4940,
      "srl": 4941,
      "tii": 4942,
      "832": 4943,
      "dsq": 4944,
      "avio": 4945,
      "953": 4946,
      "Luis": 4947,
      "xtype": 4948,
      "073": 4949,
      "064": 4950,
      "326": 4951,
      "414": 4952,
      "435": 4953,
      "770": 4954,
      "813": 4955,
      "845": 4956,
      "980": 4957,
      "956": 4958,
      "Aet": 4959,
      "Aee": 4960,
      "BP": 4961,
      "DV": 4962,
      "Fst": 4963,
      "Fon": 4964,
      "Fit": 4965,
      "Fpro": 4966,
      "Fte": 4967,
      "Fversion": 4968,
      "GL": 4969,
      "HW": 4970,
      "KO": 4971,
      "KQ": 4972,
      "Kb": 4973,
      "LR": 4974,
      "ME": 4975,
      "NQ": 4976,
      "Ren": 4977,
      "SJ": 4978,
      "Tk": 4979,
      "VO": 4980,
      "Vy": 4981,
      "Xy": 4982,
      "ZK": 4983,
      "aC": 4984,
      "aG": 4985,
      "aad": 4986,
      "aao": 4987,
      "ctt": 4988,
      "dJ": 4989,
      "dnt": 4990,
      "fA": 4991,
      "gQ": 4992,
      "hX": 4993,
      "hY": 4994,
      "has": 4995,
      "hrt": 4996,
      "jk": 4997,
      "jee": 4998,
      "jsp": 4999
    },
    "merges": [
      "+ +",
      "r e",
      "i n",
      "a r",
      "c i",
      "e r",
      "2 7",
      "n t",
      "d o",
      "s t",
      "o r",
      "2 5",
      "o n",
      "a s",
      "2 9",
      "2 8",
      "r o",
      "e l",
      "a l",
      "a d",
      "++ ++",
      "e t",
      "e s",
      "i l",
      "+ %",
      "e n",
      "r i",
      "a n",
      "m o",
      "4 0",
      "l o",
      "g i",
      "n o",
      "e m",
      "a t",
      "= %",
      "i d",
      "e e",
      "t o",
      "r ar",
      "Ġ mo",
      "Ġmo do",
      "2 2",
      "gi st",
      "d i",
      "e c",
      "n i",
      "l i",
      "lo g",
      "c o",
      "m b",
      "a m",
      "o s",
      "mb re",
      "no mbre",
      "c h",
      "i t",
      "as s",
      "log in",
      "u d",
      "i r",
      "a p",
      "re c",
      "t t",
      ". %",
      "c a",
      "p ass",
      "l e",
      "a il",
      "d e",
      "p ro",
      "i e",
      "pass w",
      "c p",
      "t e",
      "2 6",
      "e nt",
      "R e",
      "a e",
      "v in",
      "ci a",
      "2 3",
      "1 0",
      "or d",
      "25 6",
      "ci o",
      "p re",
      "l a",
      "do s",
      "p t",
      "ci on",
      "d ni",
      "nt c",
      "el li",
      "ud ad",
      "em ail",
      "passw ord",
      "pro vin",
      "di rec",
      "ap elli",
      "ci udad",
      "provin cia",
      "direc cion",
      "apelli dos",
      "pre cio",
      "gist rar",
      "Re gistrar",
      "re gist",
      "regist ro",
      "++ %",
      "2 1",
      "++++ %",
      "e o",
      "i o",
      "++ +%",
      "c ar",
      "++ +",
      "Ġ id",
      "er t",
      "s e",
      "2 4",
      "r a",
      ". .%",
      "s o",
      "ri to",
      "car rito",
      "++++ +",
      "- -",
      "h e",
      "s c",
      "h t",
      "h o",
      "25 3",
      "i a",
      "n e",
      "7 4",
      "1 5",
      "+ &",
      "i on",
      "a c",
      "o t",
      "i s",
      "3 9",
      "8 5",
      "2 0",
      "e a",
      "1 9",
      "e x",
      "7 0",
      "u s",
      "j a",
      "1 6",
      "7 6",
      "a o",
      "u t",
      "1 3",
      "w d",
      "in s",
      "c e",
      "1 8",
      "7 5",
      "b er",
      "in c",
      "s g",
      "r t",
      "1 4",
      "g o",
      "7 3",
      "ri pt",
      "e i",
      "a u",
      "ins ert",
      "s h",
      "il d",
      "e d",
      "u m",
      "e h",
      "7 9",
      "8 0",
      "b o",
      "n a",
      "ch ild",
      "n s",
      "re m",
      "ca nt",
      "ec t",
      "p wd",
      "r u",
      "6 0",
      "id ad",
      "8 9",
      "* %",
      "s a",
      "4 9",
      "i m",
      "4 5",
      "em ber",
      "t a",
      "cant idad",
      "E nt",
      "rem ember",
      "-- %",
      "ad ir",
      "ent rar",
      "u r",
      "6 5",
      "Ent rar",
      "n d",
      "3 0",
      "insert ar",
      "6 9",
      "s s",
      "er r",
      "F child",
      "3 5",
      "h tt",
      "h a",
      "l t",
      "7 8",
      "s n",
      "c es",
      "u e",
      "a i",
      "4 8",
      "sc ript",
      "c t",
      "htt p",
      "m d",
      "s r",
      "Ġ B",
      "c at",
      "s i",
      "t i",
      "m e",
      "n n",
      "o o",
      "a y",
      "d en",
      "or M",
      "a h",
      "Ġ err",
      "orM sg",
      "Ġerr orMsg",
      "4 6",
      "ex ec",
      "t as",
      "l l",
      "o f",
      "x t",
      "p os",
      "al es",
      "a ci",
      "4 3",
      "w w",
      "o k",
      "f t",
      "27 0",
      "o p",
      "o e",
      "a a",
      "1 1",
      "C re",
      "l s",
      "it ion",
      "5 0",
      "pos ition",
      "a b",
      "t r",
      "V aci",
      "Vaci ar",
      "do c",
      "t n",
      "h n",
      "ci ales",
      "or rec",
      "co m",
      "inc orrec",
      "den ciales",
      "Cre denciales",
      "8 3",
      "++++ +%",
      "incorrec tas",
      "o b",
      "s y",
      "t m",
      "w in",
      "d el",
      "um ent",
      "doc ument",
      "w e",
      "h r",
      "5 5",
      "i i",
      "25 0",
      "6 6",
      "u p",
      "am e",
      "t s",
      "n r",
      "a g",
      "8 8",
      "t h",
      "o l",
      "9 0",
      "3 3",
      "m ar",
      "p h",
      "t u",
      "1 7",
      "= +",
      "d a",
      "h i",
      "m l",
      "m a",
      "c n",
      "25 2",
      "u n",
      "r n",
      "do w",
      "s p",
      "ok ie",
      "co okie",
      "on f",
      "C al",
      "4 4",
      "g e",
      "h s",
      "9 9",
      "o d",
      "8 6",
      "p or",
      "d t",
      "u nt",
      "D e",
      "i h",
      "an d",
      "3 6",
      "in o",
      "7 7",
      "p e",
      "f r",
      "p er",
      "b in",
      "4 1",
      "B position",
      "P as",
      "u i",
      "w a",
      "0 9",
      "n et",
      "r s",
      "5 9",
      "m t",
      "et c",
      "o i",
      "c md",
      "f or",
      "Cal le",
      "o a",
      "no de",
      "r r",
      "e u",
      "o m",
      "C onf",
      "ir mar",
      "Conf irmar",
      "e g",
      "u es",
      "i c",
      "of f",
      ". .",
      "d y",
      "e b",
      "ca ja",
      "Pas ar",
      "A l",
      "r m",
      "n h",
      "ces s",
      "3 8",
      "E D",
      "e y",
      "e v",
      "co unt",
      "0 0",
      "5 6",
      "n u",
      "o h",
      "1 2",
      "d s",
      "in g",
      "l ud",
      "p s",
      "E C",
      "3 4",
      "b a",
      "8 4",
      "z a",
      "10 0",
      "i g",
      "l n",
      "a v",
      "inc lud",
      "e go",
      "t d",
      "al ert",
      "st y",
      "in i",
      "f ro",
      "n c",
      "t l",
      "s d",
      "ar os",
      "passw d",
      "R io",
      "op en",
      "B document",
      "f e",
      "b e",
      "s el",
      "7 1",
      "h h",
      "m ail",
      "k e",
      "b y",
      "M an",
      "g a",
      "v i",
      "R O",
      "j ect",
      "u l",
      "s l",
      "n l",
      "at h",
      "I b",
      "r h",
      "a j",
      "Rio ja",
      "f o",
      "25 74",
      "6 8",
      "6 4",
      "c gi",
      "e p",
      "u a",
      "win dow",
      "includ e",
      "0 5",
      "cat ion",
      "d n",
      "A node",
      "c k",
      "6 7",
      "e w",
      "fro m",
      "6 3",
      "9 5",
      "v a",
      "m i",
      "re p",
      "S E",
      "r d",
      "g et",
      "I N",
      "lo cation",
      "a nt",
      "t y",
      "7 2",
      "st em",
      "e f",
      "s m",
      "u b",
      "d at",
      "256 3",
      "sty le",
      "V ino",
      "r l",
      "h d",
      "Man ch",
      "Q ues",
      "a f",
      "Manch ego",
      "3 1",
      "ob ject",
      "g t",
      "8 1",
      "n ame",
      "4 7",
      "re s",
      "3 7",
      "v ar",
      "p y",
      "h l",
      "i b",
      "w t",
      "sel ect",
      "h ad",
      "8 7",
      "au to",
      "p o",
      "al l",
      "J am",
      "u o",
      "F etc",
      "rep la",
      "R E",
      "e z",
      "p a",
      "n g",
      "el l",
      "b t",
      "p ath",
      "ri co",
      "te xt",
      "d d",
      "Ques o",
      "r c",
      "ww w",
      "y o",
      "y e",
      "C l",
      "9 3",
      "on a",
      "c l",
      "n m",
      "y t",
      "sy stem",
      "9 8",
      "C R",
      "u nd",
      "O R",
      "c u",
      "f i",
      "d r",
      "x p",
      "5 8",
      "v e",
      "p l",
      "u h",
      "P T",
      "et e",
      "9 6",
      "C a",
      "L a",
      "q u",
      "auto exec",
      "c s",
      "5 3",
      "on n",
      "m s",
      "di r",
      "et a",
      "H E",
      "b i",
      "g u",
      "F RO",
      "m n",
      "g ro",
      "FRO M",
      "p i",
      "w o",
      "R o",
      "v b",
      "256 5",
      "256 9",
      "repla ce",
      "ar a",
      "5 4",
      "us er",
      "x ml",
      "EC T",
      "0 6",
      "er a",
      "E t",
      "d h",
      "B T",
      "w p",
      "as c",
      "9 4",
      "b g",
      "F passwd",
      "w s",
      "0 8",
      "w n",
      "an y",
      "c r",
      "g r",
      "l r",
      "a z",
      "A r",
      "s u",
      "A S",
      "i u",
      "j o",
      "I PT",
      "S CR",
      "n y",
      "i f",
      "im g",
      "E e",
      "win nt",
      "V al",
      "h m",
      "an o",
      "m in",
      "r f",
      "t c",
      "di v",
      "P aros",
      "b ri",
      "i v",
      "b s",
      "u el",
      "y a",
      "0 3",
      "E n",
      "25 22",
      "A text",
      "tm p",
      "5 7",
      "9 1",
      "A N",
      "h u",
      "wa it",
      "v ir",
      "w he",
      "l d",
      "m p",
      "g n",
      "E s",
      "del ay",
      "B wait",
      "in st",
      "Bwait for",
      "w i",
      "6 1",
      "am per",
      "b n",
      "ja v",
      "k o",
      "Ġid A",
      "f a",
      "u ni",
      "an a",
      "g s",
      "h y",
      "BT amper",
      "9 7",
      "d in",
      "ac cess",
      "ec ho",
      "1 10",
      "l in",
      "Ġ /",
      "r y",
      "ru ct",
      "i z",
      "W HE",
      "asc ript",
      "f n",
      "WHE RE",
      "SE L",
      "f il",
      "d l",
      "tu al",
      "inst ruct",
      "st re",
      "cess ing",
      "F N",
      "vir tual",
      "p n",
      "il l",
      "w h",
      "0 4",
      "m r",
      "E r",
      "m u",
      "F script",
      "T o",
      "er o",
      "D had",
      "l h",
      "y n",
      "er m",
      "pro cessing",
      "instruct ion",
      "Ġ t",
      "5 1",
      "d u",
      "f s",
      "jav ascript",
      "= ..%",
      "E o",
      "i p",
      "ft p",
      "i w",
      "t el",
      "b r",
      "* *%",
      "1 23",
      "j e",
      "z o",
      "E l",
      "g h",
      "ch a",
      "b et",
      "in a",
      "ad a",
      "3 2",
      "bo ot",
      "onn ect",
      "M o",
      "bo dy",
      "e q",
      "whe re",
      "S an",
      "c d",
      "m h",
      "- &",
      "I O",
      "es s",
      "b at",
      "t f",
      "bri en",
      "p r",
      "a w",
      "8 2",
      "b h",
      "e j",
      "i y",
      "o u",
      "ut dow",
      ".. ..",
      "SEL ECT",
      "AS et",
      "b c",
      "t g",
      "st h",
      "D N",
      "t er",
      "l u",
      "s am",
      "B ar",
      "o c",
      "C ar",
      "M ar",
      "s w",
      "0 7",
      "F A",
      "e k",
      "o y",
      "v er",
      "b l",
      "ad min",
      "ĠerrorMsg A",
      "us r",
      "A t",
      "s f",
      "E alert",
      "b u",
      "w r",
      "F www",
      "U N",
      "n f",
      "s er",
      "object Cl",
      "objectCl ass",
      "E a",
      "in p",
      "vb script",
      "L e",
      "4 2",
      "C e",
      "W IN",
      "il la",
      "n p",
      "o z",
      "7 27",
      "F cgi",
      "G u",
      "25 29",
      "k a",
      "ro p",
      "t w",
      "x e",
      "or g",
      "stre am",
      "C o",
      "T e",
      "l y",
      "E i",
      "n w",
      "A L",
      "25 28",
      "k i",
      "m c",
      "6 2",
      "ac k",
      "256 1",
      "ha vin",
      "t p",
      "r an",
      "AN D",
      "g l",
      "t b",
      "0 1",
      "co py",
      "C SCR",
      "we en",
      "for m",
      "t ar",
      "5 2",
      "gro up",
      "h c",
      "p as",
      "y s",
      "ht ac",
      "so und",
      "S al",
      "q e",
      "9 2",
      "S ant",
      "ht pass",
      "ho me",
      "uni on",
      "x y",
      "st din",
      "so ck",
      "htac ces",
      "A e",
      "h f",
      "w get",
      "sh utdow",
      "o g",
      "ee e",
      "d m",
      "z e",
      "Ġ e",
      "up dat",
      "a k",
      "s b",
      "v o",
      "C u",
      "a q",
      "l m",
      "p aros",
      "c onnect",
      "ar ra",
      "f f",
      "y i",
      "ce pt",
      "y r",
      "- =",
      "C i",
      "F http",
      "o w",
      "+ --%",
      "E h",
      "d b",
      "c el",
      "25 27",
      "vi ces",
      "sth ru",
      "q t",
      "e T",
      "f h",
      "re n",
      "id a",
      "E X",
      "k t",
      "26 40",
      "m an",
      "u g",
      "Ġ n",
      "ex e",
      "B l",
      "F i",
      "w l",
      "en cia",
      "bg sound",
      "Fhttp d",
      "c m",
      "74 727",
      "E d",
      "j t",
      "i q",
      "10 41",
      "inp ut",
      "havin g",
      "IO N",
      "P l",
      "b d",
      "r p",
      "or a",
      "E T",
      "ur l",
      "sr c",
      "A n",
      "i x",
      "N T",
      "b ar",
      "u c",
      "-- &",
      "253 74727",
      "110 25374727",
      "2640 11025374727",
      "1041 264011025374727",
      "ac cept",
      "xt erm",
      "fr ame",
      "B o",
      "O r",
      "f l",
      "h p",
      "Ġ o",
      "h g",
      "h w",
      "y N",
      "C system",
      "F t",
      "i k",
      "bet ween",
      "25 70",
      "m y",
      "n b",
      "st a",
      "st e",
      "li ke",
      "d c",
      "Ġ s",
      "25 73",
      "& .",
      "d f",
      "r w",
      "23 5",
      "A s",
      "S e",
      "ph p",
      "D o",
      "il a",
      "0 2",
      "F e",
      "D O",
      "r g",
      "@ =",
      "u y",
      "k n",
      "F a",
      "N o",
      "B alert",
      "er s",
      "O t",
      "S i",
      "T t",
      "v t",
      ". =",
      "R i",
      "_ =",
      "S t",
      "l c",
      "x a",
      "C n",
      "I e",
      "e E",
      "r b",
      "z t",
      "C script",
      "s k",
      "* +%",
      "B window",
      "j n",
      "y u",
      "Ġ a",
      "f d",
      "76 5",
      "q n",
      "C am",
      "E m",
      "D t",
      "net cat",
      "& @",
      "C h",
      "Ġ r",
      "& _",
      "C t",
      "c f",
      "A o",
      "v al",
      "Ġmodo A",
      ". +",
      "mo cha",
      "A m",
      "F n",
      "g os",
      "p u",
      "q o",
      "nt e",
      "I t",
      "P al",
      "k h",
      "B a",
      "C s",
      "j i",
      "ee o",
      "pas sthru",
      "S o",
      "k s",
      "a E",
      "y l",
      "EX EC",
      "F o",
      "m m",
      "w u",
      "as e",
      "O e",
      "T r",
      "_ &",
      "z n",
      "en e",
      "ri d",
      "I s",
      "li b",
      "C or",
      "I n",
      "x s",
      "et t",
      "D a",
      "F bin",
      "T n",
      "z i",
      "do r",
      "p d",
      "il lo",
      "di sp",
      "F h",
      "g d",
      "B e",
      "an ca",
      "UN ION",
      "N t",
      "c c",
      "h b",
      "re t",
      "disp la",
      "O s",
      "u u",
      "en s",
      "ar i",
      "tel net",
      "x o",
      "er n",
      "N i",
      "q s",
      "R a",
      "R t",
      "en a",
      "250 0",
      "y h",
      "in t",
      "nu ll",
      "P o",
      "22 1",
      "ap e",
      "B u",
      "E u",
      "F H",
      "N e",
      "a T",
      "v s",
      "A R",
      "A d",
      "q i",
      "Ġ h",
      "A i",
      "v n",
      "AL L",
      "S a",
      "c y",
      "t z",
      "shutdow n",
      "f u",
      "j s",
      "& -",
      "x i",
      "m g",
      "Ġ d",
      "C WIN",
      "er i",
      "27 1",
      "es e",
      "en o",
      "B ur",
      "H e",
      "Ca st",
      "T a",
      "l b",
      "z s",
      "ee a",
      "C img",
      "w m",
      "ev al",
      "O n",
      "k r",
      "m ent",
      "F C",
      "Ġ i",
      "T or",
      "l f",
      "y d",
      "D s",
      "J u",
      "r v",
      "A M",
      "A v",
      "http s",
      "D n",
      "d es",
      "t E",
      "C x",
      "T i",
      "W S",
      "t j",
      "x n",
      "D i",
      "at o",
      "lin k",
      "D E",
      "T A",
      "m w",
      "I r",
      "d w",
      "fil e",
      "d rop",
      "25 72",
      "N a",
      "q a",
      "v ia",
      "ED a",
      "I o",
      "i j",
      "p m",
      "t v",
      "z h",
      "re l",
      "cel ona",
      "L o",
      "et o",
      "+ -",
      ". &",
      "ar t",
      "= -",
      "F l",
      "N av",
      "z r",
      "S n",
      "B j",
      "r cp",
      "precio A",
      "user name",
      "g g",
      "D el",
      "per l",
      "F f",
      "F s",
      "L I",
      "st i",
      "ee i",
      "yN ame",
      "displa yName",
      "b ack",
      "e N",
      "q h",
      "y m",
      "st o",
      "ri a",
      "A a",
      "e et",
      "ser vices",
      "F E",
      "S h",
      "i pt",
      "s j",
      "Ġ l",
      "C r",
      "n ph",
      "s E",
      "u f",
      "x m",
      "et sc",
      "at i",
      "bo b",
      "B k",
      "F B",
      "g m",
      "t k",
      "ee h",
      "sc r",
      "re r",
      "del ete",
      "F D",
      "K E",
      "i T",
      "v h",
      "ess ion",
      "F u",
      "a x",
      "d g",
      "em ent",
      "am anca",
      "get fil",
      "Ro ot",
      "DN etsc",
      "Gu ad",
      "tar getfil",
      "ape Root",
      "DNetsc apeRoot",
      "targetfil ter",
      "d p",
      "i E",
      "m er",
      "A com",
      "e O",
      "Acom ment",
      "F c",
      "R n",
      "Sal amanca",
      "x ec",
      "Bur gos",
      "F G",
      "j r",
      "E N",
      "S s",
      "e H",
      "f m",
      "x r",
      "L u",
      "q r",
      "or t",
      "en n",
      "A h",
      "e I",
      "w y",
      "23 48",
      "w f",
      "on e",
      "A b",
      "C autoexec",
      "P u",
      "T s",
      "an i",
      "c g",
      "l p",
      "* +++%",
      "A g",
      "F r",
      "ro s",
      "20 55",
      "user s",
      "C m",
      "at e",
      "k l",
      "v r",
      "st er",
      "et n",
      "od bc",
      "b b",
      "d E",
      "j h",
      "Ġ m",
      "A c",
      "I a",
      "g f",
      "x l",
      "ar d",
      "gro und",
      "back ground",
      "M a",
      "N s",
      "e R",
      "ar o",
      "es c",
      "F scr",
      "T er",
      "e S",
      "r E",
      "x h",
      "in k",
      "or ia",
      "pro xy",
      "13 0",
      "CSCR ipt",
      "paros proxy",
      "Fscr IPT",
      "25 20",
      "en i",
      "H o",
      "H u",
      "g c",
      "5 765",
      "I i",
      "l es",
      "n z",
      "u w",
      "h k",
      "r q",
      "t T",
      "in e",
      "el a",
      "76 235",
      "f c",
      "s z",
      "25 7",
      "at t",
      "F SCR",
      "M e",
      "Ġ by",
      "CSCR IPT",
      "FSCR IPT",
      "O a",
      "67 2348",
      "2055 672348",
      "5765 2055672348",
      "57652055672348 76235",
      "D u",
      "E f",
      "O l",
      "st at",
      "1 70",
      "F I",
      "a ee",
      "b m",
      "n E",
      "n v",
      "y c",
      "do l",
      "lo s",
      "Bar celona",
      "S S",
      "x d",
      "ad rid",
      "Guad al",
      "H t",
      "L i",
      "j u",
      "re f",
      "- %",
      "O o",
      "b f",
      "updat e",
      "P a",
      "as a",
      "L E",
      "N n",
      "O h",
      "T h",
      "d q",
      "e re",
      "g w",
      "m et",
      "es o",
      "t q",
      "w c",
      "y y",
      "at a",
      "DO WS",
      "d k",
      "o v",
      "u z",
      "el i",
      "el net",
      "es a",
      "an n",
      "40 9",
      "B r",
      "d j",
      "g y",
      "z m",
      "mo ch",
      "l w",
      "o pt",
      "nt o",
      "ir a",
      "ent e",
      "-- ++++%",
      "B s",
      "D r",
      "P i",
      "p p",
      "* ++%",
      "h E",
      "s v",
      "re e",
      ".... ....",
      "L t",
      "Ġ y",
      "A u",
      "A y",
      "F m",
      "H n",
      "V ill",
      "g p",
      "o q",
      "z u",
      "C window",
      "L l",
      "et s",
      "A alert",
      "I h",
      "b w",
      "o E",
      "v u",
      "Ġ u",
      "1 85",
      "C div",
      "g ra",
      "j m",
      "z l",
      "an e",
      "B t",
      "N r",
      "c w",
      "A url",
      "B i",
      "E p",
      "G ir",
      "c b",
      "h q",
      "n q",
      "s T",
      "10 3",
      "-- +%",
      "stat ement",
      "H i",
      "O i",
      "s et",
      "18 0",
      "d z",
      "15 0",
      "go za",
      "123 12",
      "D h",
      "R s",
      "e A",
      "26 3",
      "19 0",
      "F F",
      "b p",
      "m f",
      "s ch",
      "aj ara",
      "123 12312",
      "ession id",
      "Cwindow s",
      "* ++++%",
      "2 27",
      "B C",
      "I l",
      "V i",
      "q l",
      "40 5",
      "ae o",
      "ara goza",
      "D l",
      "E b",
      "c or",
      "25 75",
      "-- ++%",
      "Sant a",
      "Guadal ajara",
      "E c",
      "h or",
      "i ee",
      "n T",
      "x u",
      "as o",
      "28 0",
      "a R",
      "n k",
      "+ *",
      "1 20",
      "4 21",
      "= +%",
      "O P",
      "h v",
      "s N",
      "y p",
      "z d",
      "nombre A",
      "1 16",
      "B al",
      "E g",
      "F x",
      "R S",
      "l g",
      "l v",
      "q ue",
      "14 3",
      "Val encia",
      "p le",
      "el e",
      "256 7",
      "1 74",
      "r T",
      "256 8",
      "18 9",
      "C N",
      "F d",
      "P la",
      "h z",
      "r z",
      "s x",
      "re a",
      "et i",
      "et r",
      "256 4",
      "we b",
      "1 40",
      "B er",
      "E w",
      "k d",
      "s ec",
      "t x",
      "t to",
      "Ġ 6",
      "on i",
      "ae i",
      "15 5",
      "1 29",
      "1 75",
      "H a",
      "J a",
      "O T",
      "Z aragoza",
      "b al",
      "j l",
      "p en",
      "Ġ 2",
      "Ġ c",
      "os a",
      "login A",
      "-- +++%",
      "O u",
      "Q u",
      "g en",
      "k u",
      "el o",
      "1 39",
      "16 8",
      "m en",
      "an s",
      "tt e",
      "te o",
      "1 78",
      "I d",
      "n x",
      "p b",
      "p c",
      "Ġ 7",
      "40 0",
      "os e",
      "13 3",
      "ed a",
      "1 27",
      "G o",
      "T u",
      "Z am",
      "a N",
      "d er",
      "g ar",
      "i N",
      "y f",
      "Ġ b",
      "id e",
      "22 6",
      "10 7",
      "13 5",
      "4 45",
      "S r",
      "j d",
      "k m",
      "it e",
      "ht ml",
      "1 21",
      "B h",
      "c al",
      "t N",
      "et h",
      "ee d",
      "ae a",
      "10 8",
      "C winnt",
      "S u",
      "l k",
      "q d",
      "u ra",
      "ra v",
      "16 0",
      "D B",
      "n A",
      "n j",
      "p ub",
      "r j",
      "v ila",
      "w g",
      "y g",
      "or i",
      "el la",
      "15 4",
      "Ter uel",
      "C d",
      "E y",
      "S ego",
      "c onf",
      "t A",
      "Ġ f",
      "Ġ p",
      "le y",
      "26 5",
      "10 5",
      "cu st",
      "Pal encia",
      "CWIN NT",
      "M i",
      "T l",
      "e st",
      "s en",
      "es h",
      "16 5",
      "del et",
      "Sego via",
      "4 70",
      "S d",
      "s essionid",
      "x c",
      "Ġ 5",
      "es i",
      "L le",
      "M adrid",
      "f g",
      "o j",
      "t in",
      "en ca",
      "1 79",
      "l E",
      "r k",
      "u k",
      "Ġ w",
      "do n",
      "29 0",
      "28 8",
      "15 6",
      "ack er",
      "C b",
      "f p",
      "h j",
      "ni e",
      "18 3",
      "M A",
      "b j",
      "p g",
      "to s",
      "-- +++++%",
      "Mo nt",
      "O d",
      "U r",
      "c z",
      "m k",
      "t S",
      "Ġ 8",
      "li k",
      "os o",
      "a I",
      "q m",
      "v l",
      "Ġ 0",
      "st r",
      "R l",
      "f w",
      "g b",
      "h x",
      "v d",
      "40 6",
      "eo e",
      "19 5",
      "B n",
      "F autoexec",
      "y w",
      "z c",
      "Ġ 4",
      "on o",
      "al o",
      "eo t",
      "ho m",
      "13 6",
      "= +&",
      "R u",
      "p w",
      "Ġ g",
      "as h",
      "al a",
      "LI KE",
      "1 26",
      "B processing",
      "C as",
      "F b",
      "H h",
      "N h",
      "i frame",
      "m x",
      "n S",
      "q c",
      "re to",
      "22 0",
      "it a",
      "ae h",
      "Zam ora",
      "+ .",
      "1 24",
      "F WIN",
      "e D",
      "k y",
      "p f",
      "s q",
      "Ġ 1",
      "25 4",
      "en l",
      "pl es",
      "Ġ 9",
      "te a",
      "19 3",
      "ET E",
      "Gir ona",
      "2 40",
      "F var",
      "G r",
      "M u",
      "m eta",
      "an c",
      "la dol",
      "iv o",
      "DE L",
      "ladol id",
      "R d",
      "T c",
      "T m",
      "e es",
      "s A",
      "++ -",
      "nt a",
      "st u",
      "39 0",
      "14 4",
      "Cu enca",
      "Nav arra",
      "L n",
      "R r",
      "S oria",
      "f E",
      "f b",
      "27 9",
      "Val ladolid",
      "F access",
      "F usr",
      "N u",
      "P e",
      "T d",
      "a O",
      "h er",
      "n I",
      "t et",
      "u x",
      "v c",
      "w b",
      "dat e",
      "1 76",
      "U i",
      "b ject",
      "28 5",
      "19 4",
      "D A",
      "T y",
      "U e",
      "o x",
      "q y",
      "25 5",
      "on s",
      "28 6",
      "19 8",
      "19 9",
      "ex am",
      "C c",
      "F log",
      "H r",
      "g mt",
      "er os",
      "or n",
      "24 3",
      "14 5",
      "2 29",
      "E R",
      "I g",
      "d x",
      "h ee",
      "i et",
      "28 3",
      "it t",
      "15 9",
      "18 6",
      "fr am",
      "Lle ida",
      "g ona",
      "h S",
      "h T",
      "l z",
      "s on",
      "ri p",
      "16 3",
      "2 10",
      "C g",
      "H s",
      "I c",
      "a re",
      "e L",
      "f k",
      "f y",
      "j y",
      "u to",
      "Ġ 3",
      "nt i",
      "al t",
      "an g",
      "cust om",
      "B LE",
      "D m",
      "l as",
      "r N",
      "er vices",
      "27 5",
      "21 9",
      "1 13",
      "G ran",
      "r A",
      "Ġ N",
      "++ --%",
      "ar r",
      "27 6",
      "28 9",
      "se a",
      "19 7",
      "ED n",
      "1 15",
      "1 18",
      "F y",
      "U t",
      "b z",
      "h N",
      "h O",
      "k w",
      "n ee",
      "re o",
      "25 9",
      "as i",
      "ri s",
      "it i",
      "+++ --%",
      "a S",
      "q w",
      "26 0",
      "10 6",
      "us u",
      "14 6",
      "49 0",
      "45 8",
      "TA BLE",
      "4 74",
      "4 65",
      "t R",
      "v w",
      "es n",
      "+++++ --%",
      "39 3",
      "14 8",
      "sh ell",
      "B ad",
      "H d",
      "T arra",
      "j f",
      "++++ -",
      "ec h",
      "23 0",
      "10 9",
      "up per",
      "B c",
      "F g",
      "U SE",
      "V il",
      "b E",
      "i I",
      "s I",
      "t I",
      "ar ch",
      "24 9",
      "16 9",
      "ce res",
      "F T",
      "F text",
      "F user",
      "P r",
      "S m",
      "Y e",
      "a A",
      "a M",
      "b le",
      "g er",
      "h A",
      "j c",
      "k g",
      "l j",
      "s ee",
      "t ee",
      "u E",
      "z z",
      "27 8",
      "ie o",
      "+++++ -",
      "70 3",
      "14 9",
      "11 1",
      "17 7",
      "DEL ETE",
      "7 20",
      "A li",
      "U s",
      "a L",
      "i S",
      "n N",
      "29 6",
      "29 9",
      "40 3",
      "+++ -",
      "A p",
      "L os",
      "O b",
      "k c",
      "l et",
      "n R",
      "v m",
      "Ġ S",
      "80 0",
      "80 6",
      "65 0",
      "ag a",
      "B bar",
      "D d",
      "G ar",
      "U o",
      "c x",
      "Ġ E",
      "ie i",
      "76 0",
      "Ff oo",
      "Tarra gona",
      "1 28",
      "C an",
      "C www",
      "D f",
      "O y",
      "e M",
      "e en",
      "e it",
      "l T",
      "l ee",
      "r x",
      "u ll",
      "v p",
      "w z",
      "27 4",
      "25 25",
      "ch o",
      "18 8",
      "md b",
      "3 74",
      "C f",
      "F home",
      "S I",
      "S er",
      "c on",
      "d et",
      "l q",
      "m z",
      "n at",
      "s ur",
      "u j",
      "Ġ q",
      "al i",
      "ord er",
      "15 8",
      "16 6",
      "79 0",
      "Al b",
      "B A",
      "d N",
      "g q",
      "o N",
      "o T",
      "p x",
      "t D",
      "al e",
      "to e",
      "22 4",
      "le do",
      "te i",
      "23 6",
      "E st",
      "S Q",
      "T w",
      "a H",
      "d T",
      "s S",
      "u q",
      "z w",
      "Ġ j",
      "ri o",
      "40 8",
      "20 0",
      "16 7",
      "46 8",
      "IN J",
      "5 69",
      "E sp",
      "P AR",
      "a et",
      "k p",
      "n O",
      "s an",
      "t H",
      "v f",
      "ci s",
      "25 40",
      "ad e",
      "40 4",
      "21 8",
      "19 2",
      "76 9",
      "89 0",
      "ECT ED",
      "INJ ECTED",
      "PAR AM",
      "7 23",
      "C M",
      "C p",
      "g E",
      "m q",
      "y b",
      "Ġ O",
      "27 3",
      "29 5",
      "75 3",
      "30 0",
      "1 73",
      "B w",
      "G i",
      "S c",
      "e W",
      "e Y",
      "h ref",
      "l er",
      "m v",
      "o ee",
      "r O",
      "Ġ x",
      "Ġ z",
      "st t",
      "75 9",
      "ag e",
      "+* +",
      "D w",
      "N d",
      "b O",
      "b ea",
      "c T",
      "h en",
      "i er",
      "on mo",
      "ri c",
      "at r",
      "di a",
      "24 5",
      "49 3",
      "B y",
      "C C",
      "E k",
      "S l",
      "i en",
      "q f",
      "q p",
      "t O",
      "u A",
      "v y",
      "29 3",
      "29 4",
      "es r",
      "at s",
      "70 9",
      "us eo",
      "89 6",
      "78 6",
      "ma ster",
      "uel a",
      "arch ivo",
      "A f",
      "A nt",
      "B cat",
      "n H",
      "r on",
      "s H",
      "40 7",
      "26 4",
      "eo o",
      "39 6",
      "ea o",
      "13 8",
      "75 5",
      "79 5",
      "45 0",
      "net pub",
      "1 22",
      "D p",
      "O j",
      "P ar",
      "Y a",
      "f j",
      "i A",
      "i O",
      "x b",
      "di o",
      "it h",
      "74 5",
      "15 3",
      "70 0",
      "CWIN DOWS",
      "C y",
      "G e",
      "c as",
      "e er",
      "e ae",
      "k f",
      "t en",
      "x w",
      "re d",
      "++++ --%",
      "24 6",
      "he a",
      "19 6",
      "18 4",
      "79 6",
      "Ju an",
      "B m",
      "E S",
      "F U",
      "G l",
      "L h",
      "L s",
      "S et",
      "a D",
      "f q",
      "g v",
      "h et",
      "i el",
      "s U",
      "z y",
      "ar m",
      "st d",
      "28 4",
      "ec o",
      "70 5",
      "To ledo",
      "D RO",
      "F p",
      "N l",
      "c E",
      "e U",
      "g T",
      "i R",
      "j p",
      "r R",
      "t U",
      "t es",
      "u T",
      "w or",
      "25 8",
      "el s",
      "en g",
      "24 4",
      "19 1",
      "73 6",
      "79 9",
      "ty pe",
      "onmo useo",
      "onmouseo ver",
      "B p",
      "C ab",
      "S O",
      "T O",
      "c O",
      "c v",
      "e at",
      "t ftp",
      "Ġ T",
      "re g",
      "29 8",
      "am a",
      "tt a",
      "21 3",
      "21 5",
      "74 9",
      "16 4",
      "89 9",
      "35 0",
      "dat os",
      "Pl za",
      "ari os",
      "usu arios",
      "DRO P",
      "d ee",
      "h H",
      "r I",
      "r at",
      "u er",
      "Ġ k",
      "Ġ v",
      "on g",
      "et cat",
      "ie a",
      "eo i",
      "74 3",
      "75 6",
      "Tor re",
      "7 76",
      "B N",
      "C A",
      "E j",
      "e as",
      "t L",
      "++ &",
      "re i",
      "or o",
      "it s",
      "tt t",
      "85 5",
      "60 0",
      "60 9",
      "49 6",
      "sam ples",
      "A z",
      "C w",
      "C ant",
      "D g",
      "E I",
      "E document",
      "I p",
      "P U",
      "d S",
      "h I",
      "k z",
      "o S",
      "40 40",
      "tt i",
      "te h",
      "26 9",
      "70 8",
      "73 8",
      "45 5",
      "4 20",
      "C I",
      "E x",
      "J o",
      "L as",
      "a U",
      "f v",
      "s R",
      "v an",
      "z f",
      "re y",
      "re z",
      "ad i",
      "22 3",
      "74 6",
      "39 5",
      "85 9",
      "sec reto",
      "A W",
      "B style",
      "M n",
      "O p",
      "T p",
      "d ll",
      "h ar",
      "h es",
      "w E",
      "w v",
      "nt s",
      "st s",
      "em i",
      "ae d",
      "se i",
      "ao e",
      "14 1",
      "30 5",
      "cmd shell",
      "D y",
      "H p",
      "O c",
      "W E",
      "b k",
      "c A",
      "d I",
      "d bo",
      "l I",
      "l en",
      "r S",
      "w T",
      "y stem",
      "el t",
      "es p",
      "20 9",
      "cant e",
      "aj oz",
      "custom er",
      "2 28",
      "3 19",
      "4 69",
      "C H",
      "D b",
      "D c",
      "F M",
      "F ls",
      "P ed",
      "R p",
      "T f",
      "a es",
      "u S",
      "w j",
      "y v",
      "23 8",
      "ne a",
      "75 8",
      "73 0",
      "79 8",
      "fo x",
      "Bad ajoz",
      "V o",
      "a W",
      "c q",
      "d ar",
      "m j",
      "w q",
      "de a",
      "io l",
      "85 6",
      "49 8",
      "ab ria",
      "USE RS",
      "1 19",
      "B http",
      "F cookie",
      "J e",
      "M t",
      "N c",
      "P h",
      "P s",
      "S W",
      "b v",
      "d A",
      "d R",
      "d v",
      "g z",
      "n L",
      "p k",
      "u v",
      "re h",
      "25 78",
      "en h",
      "23 9",
      "21 4",
      "21 6",
      "sc rip",
      "80 5",
      "35 9",
      "ste al",
      "Fh acker",
      "exam ple",
      "Fcookie steal",
      "A le",
      "C O",
      "M l",
      "N m",
      "R os",
      "V illa",
      "a in",
      "c j",
      "e is",
      "h R",
      "q b",
      "s al",
      "Ġ U",
      "el d",
      "co s",
      "ir s",
      "23 3",
      "18 7",
      "75 0",
      "ues ca",
      "Gran ada",
      "1 14",
      "F v",
      "I f",
      "I x",
      "M r",
      "M s",
      "Q L",
      "d O",
      "r as",
      "y k",
      "z p",
      "nt t",
      "on d",
      "an do",
      "to t",
      "26 8",
      "85 8",
      "20 6",
      "70 6",
      "89 5",
      "S T",
      "m E",
      "m T",
      "q g",
      "q j",
      "r H",
      "t or",
      "t ie",
      "u O",
      "u R",
      "ar n",
      "er to",
      "er ra",
      "29 7",
      "il i",
      "ee u",
      "ie h",
      "24 8",
      "ea i",
      "78 7",
      "46 4",
      "hor as",
      "1 25",
      "E E",
      "N v",
      "S p",
      "a en",
      "b el",
      "e el",
      "k b",
      "l N",
      "v v",
      "40 1",
      "it n",
      "tt n",
      "15 7",
      "80 3",
      "60 5",
      "43 6",
      "B R",
      "B f",
      "D T",
      "E v",
      "Y n",
      "i se",
      "l O",
      "o O",
      "o te",
      "s O",
      "t at",
      "w x",
      "el ect",
      "am i",
      "85 0",
      "70 7",
      "65 6",
      "43 8",
      "ag u",
      "C v",
      "F z",
      "H uesca",
      "I m",
      "i to",
      "n eo",
      "o H",
      "o R",
      "o et",
      "p v",
      "s L",
      "s at",
      "80 9",
      "46 3",
      "dat ab",
      "4 23",
      "4 10",
      "C j",
      "C pro",
      "C datab",
      "I u",
      "R m",
      "T E",
      "e Q",
      "g j",
      "l A",
      "m R",
      "q q",
      "u ee",
      "w k",
      "x f",
      "Ġ A",
      "Ġ ee",
      "nt n",
      "il e",
      "de v",
      "256 2",
      "39 9",
      "85 7",
      "ex por",
      "35 5",
      "48 8",
      "83 6",
      "tto fox",
      "Cpro gra",
      "Cdatab ase",
      "expor ttofox",
      "exporttofox pro",
      "4 76",
      "C E",
      "C T",
      "F R",
      "G n",
      "M h",
      "M or",
      "N f",
      "N y",
      "b re",
      "i es",
      "s he",
      "ec e",
      "li a",
      "Re al",
      "ne i",
      "73 5",
      "pwd A",
      "45 3",
      "Fi is",
      "Ali cante",
      "2 25",
      "D I",
      "G s",
      "H w",
      "O w",
      "W e",
      "b en",
      "c ee",
      "m al",
      "o A",
      "re ll",
      "en c",
      "em e",
      "13 7",
      "75 7",
      "ei i",
      "ru z",
      "60 3",
      "remember A",
      "69 0",
      "88 6",
      "4 49",
      "A j",
      "C om",
      "F V",
      "F w",
      "F mail",
      "G al",
      "H l",
      "L r",
      "M er",
      "S b",
      "S y",
      "U a",
      "U l",
      "U n",
      "W Z",
      "Y l",
      "b x",
      "c et",
      "h at",
      "z g",
      "es m",
      "ec a",
      "io e",
      "39 8",
      "14 7",
      "89 8",
      "65 4",
      "11 7",
      "66 6",
      "Cast ell",
      "FI netpub",
      "FWIN DOWS",
      "Fiis samples",
      "E z",
      "F or",
      "M d",
      "Y t",
      "a do",
      "b q",
      "c H",
      "f N",
      "l x",
      "o L",
      "r L",
      "s ho",
      "v g",
      "Ġ I",
      "Ġ W",
      "ar s",
      "27 7",
      "en r",
      "no e",
      "li o",
      "26 6",
      "ht s",
      "20 3",
      "13 4",
      "80 7",
      "80 8",
      "35 8",
      "7 10",
      "A I",
      "A X",
      "A w",
      "B g",
      "E O",
      "F O",
      "F er",
      "I j",
      "P n",
      "S Z",
      "T I",
      "b N",
      "b T",
      "f O",
      "h eo",
      "w H",
      "w ee",
      "es l",
      "mo s",
      "40 2",
      "tt s",
      "ho st",
      "ne y",
      "is a",
      "35 3",
      "4 46",
      "B D",
      "C z",
      "E q",
      "G t",
      "R c",
      "R y",
      "a st",
      "c N",
      "h L",
      "r do",
      "u en",
      "on io",
      "ro ot",
      "ni on",
      "li e",
      "23 99",
      "85 3",
      "20 8",
      "89 3",
      "30 6",
      "43 4",
      "90 9",
      "L g",
      "R h",
      "W t",
      "d ro",
      "e ie",
      "g al",
      "j b",
      "m H",
      "m at",
      "n er",
      "w O",
      "in to",
      "ri e",
      "to a",
      "am ar",
      "se h",
      "74 8",
      "ot a",
      "76 6",
      "Cx C",
      "esc ript",
      "A x",
      "D j",
      "D k",
      "F k",
      "N p",
      "P t",
      "Y W",
      "d em",
      "f re",
      "g I",
      "i H",
      "m I",
      "r tt",
      "z b",
      "ar do",
      "er h",
      "ee b",
      "ee y",
      "ir t",
      "so e",
      "he h",
      "ia i",
      "20 5",
      "ao o",
      "45 6",
      "69 9",
      "48 3",
      "50 3",
      "36 8",
      "ED o",
      "Cx BC",
      ". _",
      "A ra",
      "C U",
      "C k",
      "C xml",
      "D S",
      "D q",
      "F L",
      "F Q",
      "G ui",
      "L d",
      "P Z",
      "e G",
      "g x",
      "g as",
      "o U",
      "p at",
      "r ad",
      "r te",
      "s eo",
      "t on",
      "z q",
      "Ġ et",
      "ni a",
      "li v",
      "le o",
      "so t",
      "13 2",
      "79 4",
      "60 6",
      "65 9",
      "11 2",
      "50 6",
      "33 7",
      "Cant abria",
      "A O",
      "F ran",
      "H I",
      "M I",
      "N w",
      "Q K",
      "W s",
      "X X",
      "a at",
      "d an",
      "e in",
      "i ae",
      "k k",
      "m es",
      "u I",
      "y E",
      "di e",
      "co a",
      "21 7",
      "73 3",
      "30 8",
      "66 8",
      "4 78",
      "A T",
      "B E",
      "B d",
      "C V",
      "C boot",
      "D z",
      "F W",
      "N b",
      "R f",
      "S w",
      "e de",
      "f ar",
      "i st",
      "l or",
      "n es",
      "t ae",
      "er l",
      "or s",
      "ro t",
      "ri as",
      "ee c",
      "24 7",
      "49 9",
      "cantidad A",
      "si p",
      "xt er",
      "43 7",
      "17 2",
      "A k",
      "C q",
      "E sc",
      "H b",
      "J K",
      "M M",
      "O z",
      "U m",
      "Y o",
      "Z J",
      "d te",
      "e ar",
      "g el",
      "g ee",
      "h an",
      "i L",
      "i ro",
      "m el",
      "s in",
      "t it",
      "in as",
      "do ra",
      "ri st",
      "ch i",
      "cp A",
      "se d",
      "is s",
      "rt i",
      "89 4",
      "65 5",
      "A E",
      "C S",
      "F q",
      "H f",
      "H m",
      "M U",
      "O m",
      "V Y",
      "W n",
      "Y h",
      "c I",
      "d ba",
      "e an",
      "f I",
      "h te",
      "j ar",
      "v j",
      "w M",
      "x g",
      "y T",
      "er al",
      "as sthru",
      "ri t",
      "di s",
      "it r",
      "ae u",
      "60 4",
      "30 9",
      "48 6",
      "Ci udad",
      "D x",
      "G a",
      "L G",
      "e P",
      "f x",
      "l an",
      "n en",
      "p E",
      "t ra",
      "w R",
      "z k",
      "z ar",
      "nt h",
      "ro e",
      "ro up",
      "al la",
      "il o",
      "ch e",
      "le a",
      "10 4",
      "eo a",
      "io t",
      "ea a",
      "76 8",
      "ue va",
      "50 0",
      "ver s",
      "Pla za",
      "B O",
      "D Z",
      "F tmp",
      "O CN",
      "R I",
      "V X",
      "X o",
      "g N",
      "g k",
      "i an",
      "m it",
      "n W",
      "o I",
      "q E",
      "u re",
      "y z",
      "ci l",
      "ee w",
      "ntc A",
      "he i",
      "15 1",
      "rt n",
      "73 7",
      "69 7",
      "69 8",
      "ue z",
      "Car rer",
      "B W",
      "B ript",
      "C at",
      "D Q",
      "D U",
      "J N",
      "J k",
      "L O",
      "M SS",
      "R w",
      "R x",
      "V V",
      "a el",
      "c U",
      "c er",
      "e X",
      "j q",
      "o re",
      "p z",
      "p ar",
      "s es",
      "u N",
      "y x",
      "Ġ Q",
      "st n",
      "as n",
      "et l",
      "ri z",
      "em s",
      "li t",
      "am ent",
      "email A",
      "ac e",
      "ot n",
      "76 3",
      "79 3",
      "49 4",
      "ur n",
      "35 6",
      "48 4",
      "DB MSS",
      "DBMSS OCN",
      "0 55",
      "A gu",
      "L k",
      "O g",
      "V Q",
      "V t",
      "Y u",
      "Z o",
      "b H",
      "g on",
      "i U",
      "i re",
      "k N",
      "m N",
      "m ee",
      "p j",
      "r ne",
      "s M",
      "u id",
      "u lt",
      "Ġ G",
      "Ġ eo",
      "es d",
      "at n",
      "to o",
      "te u",
      "23 7",
      "10 2",
      "dni A",
      "so y",
      "ac ete",
      "ot i",
      "14 2",
      "eh a",
      "im a",
      "65 8",
      "78 4",
      "46 6",
      "43 3",
      "A H",
      "C Y",
      "D on",
      "F j",
      "G w",
      "P G",
      "P v",
      "S N",
      "S g",
      "T N",
      "Z r",
      "e K",
      "f er",
      "i W",
      "i at",
      "m S",
      "p q",
      "r ae",
      "t re",
      "w en",
      "Ġ H",
      "re ra",
      "et d",
      "an es",
      "23 4",
      "direccion A",
      "apellidos A",
      "ert a",
      "ht a",
      "16 2",
      "ao a",
      "89 7",
      "ta h",
      "83 8",
      "90 6",
      "aj e",
      "D v",
      "F S",
      "F ar",
      "Q Q",
      "R b",
      "R v",
      "V W",
      "c am",
      "d ec",
      "e C",
      "e os",
      "g O",
      "g an",
      "j E",
      "o nt",
      "p N",
      "q x",
      "r U",
      "t ad",
      "u H",
      "x E",
      "y q",
      "z j",
      "in n",
      "st or",
      "et y",
      "es ia",
      "an de",
      "em a",
      "ch ez",
      "de o",
      "password A",
      "ne d",
      "18 2",
      "79 7",
      "49 5",
      "69 6",
      "66 3",
      "09 3",
      "0 85",
      "B Y",
      "C D",
      "C er",
      "C on",
      "E M",
      "G N",
      "H U",
      "K K",
      "M K",
      "M v",
      "M at",
      "P A",
      "T b",
      "V a",
      "Z c",
      "Z u",
      "b ee",
      "h am",
      "h ae",
      "n an",
      "w I",
      "x x",
      "Ġ Y",
      "27 2",
      "en ida",
      "mo t",
      "no t",
      "ud a",
      "tt h",
      "ciudad A",
      "io o",
      "86 3",
      "Mar ia",
      "Cor u",
      "Av enida",
      "Alb acete",
      "B z",
      "F X",
      "J Q",
      "N g",
      "O v",
      "R od",
      "S A",
      "S z",
      "U U",
      "V all",
      "a er",
      "b on",
      "e B",
      "e V",
      "g H",
      "i co",
      "k j",
      "m il",
      "q v",
      "r se",
      "v es",
      "Ġ K",
      "29 2",
      "28 1",
      "es u",
      "li s",
      "le d",
      "te d",
      "26 7",
      "se y",
      "18 1",
      "30 7",
      "69 5",
      "78 8",
      "ay a",
      "83 3",
      "55 9",
      "33 6",
      "44 7",
      "ev illa",
      "A Y",
      "B K",
      "B en",
      "C L",
      "I w",
      "M q",
      "S j",
      "T v",
      "W X",
      "g L",
      "h D",
      "o D",
      "q ui",
      "r re",
      "v en",
      "x T",
      "y A",
      "al s",
      "an z",
      "at l",
      "provincia A",
      "ia a",
      "ia h",
      "15 2",
      "ll es",
      "unt ament",
      "09 6",
      "qu er",
      "sur name",
      "A nd",
      "B I",
      "B q",
      "C style",
      "D L",
      "D P",
      "G G",
      "J Y",
      "K o",
      "M c",
      "M m",
      "M as",
      "O N",
      "Q H",
      "S U",
      "S k",
      "T z",
      "U d",
      "U f",
      "X Q",
      "f z",
      "i G",
      "i ie",
      "n ne",
      "o ea",
      "y j",
      "25 252",
      "28 7",
      "ad m",
      "et m",
      "de b",
      "la ga",
      "75 4",
      "ta ble",
      "65 3",
      "78 3",
      "50 5",
      "50 9",
      "A A",
      "B G",
      "B b",
      "C ap",
      "F P",
      "G m",
      "J W",
      "J h",
      "L f",
      "L m",
      "M P",
      "O I",
      "Q t",
      "R q",
      "S f",
      "U h",
      "a ae",
      "b ot",
      "c S",
      "c eo",
      "i it",
      "n D",
      "n or",
      "p H",
      "p T",
      "q z",
      "s C",
      "s it",
      "s ae",
      "s se",
      "s ne",
      "t Z",
      "w N",
      "Ġ X",
      "Ġ Z",
      "in d",
      "in r",
      "er d",
      "nt r",
      "as m",
      "as es",
      "29 1",
      "al m",
      "am t",
      "ie d",
      "ho e",
      "is h",
      "ea h",
      "ed n",
      "45 9",
      "69 4",
      "ct or",
      "09 5",
      "B V",
      "D K",
      "F style",
      "L z",
      "M L",
      "M N",
      "P P",
      "P d",
      "P m",
      "R om",
      "Y Y",
      "b eh",
      "r K",
      "r in",
      "v q",
      "v el",
      "y I",
      "re ss",
      "ro l",
      "et u",
      "no o",
      "em t",
      "ee p",
      "24 1",
      "is i",
      "ut s",
      "13 1",
      "ay o",
      "83 4",
      "88 4",
      "Al mer",
      "aj untament",
      "Si erra",
      "Po nt",
      "B Q",
      "B U",
      "C K",
      "C in",
      "D X",
      "F K",
      "I Z",
      "J os",
      "J ose",
      "L c",
      "O E",
      "S X",
      "S im",
      "T en",
      "V G",
      "W o",
      "W u",
      "d ing",
      "g ri",
      "h el",
      "j w",
      "l M",
      "n Y",
      "n el",
      "o en",
      "p et",
      "t K",
      "t an",
      "z T",
      "++++ ++++",
      "co l",
      "am on",
      "ch ar",
      "tt d",
      "21 2",
      "so ft",
      "ht n",
      "ho t",
      "ne u",
      "76 7",
      "rt a",
      "ns rc",
      "aa a",
      "33 3",
      "36 3",
      "4 15",
      "B X",
      "B v",
      "D H",
      "F Z",
      "H N",
      "I v",
      "P ass",
      "R g",
      "S Y",
      "S q",
      "S x",
      "V e",
      "W f",
      "W j",
      "b ur",
      "d H",
      "d as",
      "k M",
      "k v",
      "l L",
      "s os",
      "t G",
      "t io",
      "z O",
      "Ġ @",
      "Ġ M",
      "re u",
      "or r",
      "25 1",
      "ni o",
      "ni s",
      "co nt",
      "tt r",
      "so l",
      "ho i",
      "ho o",
      "85 4",
      "70 4",
      "sa y",
      "46 7",
      "dy nsrc",
      "Cam p",
      "vers ion",
      "C J",
      "C object",
      "I y",
      "J H",
      "L b",
      "L w",
      "M en",
      "O li",
      "P in",
      "R A",
      "R Q",
      "S ol",
      "S evilla",
      "T rav",
      "U b",
      "U z",
      "V ir",
      "Z Z",
      "h se",
      "j g",
      "j an",
      "k T",
      "n M",
      "v il",
      "w L",
      "z N",
      "do e",
      "ee f",
      "eo h",
      "he d",
      "39 1",
      "20 4",
      "16 1",
      "76 4",
      "ut a",
      "ber g",
      "na i",
      "65 7",
      "83 7",
      "17 1",
      "ill as",
      "C G",
      "C X",
      "D G",
      "D Y",
      "E L",
      "F el",
      "H y",
      "I R",
      "I q",
      "L N",
      "L lo",
      "M f",
      "N OT",
      "O O",
      "P K",
      "P N",
      "R N",
      "Y K",
      "Y N",
      "Z a",
      "b ro",
      "i io",
      "j v",
      "k x",
      "k el",
      "n re",
      "o J",
      "r al",
      "s X",
      "s ar",
      "s as",
      "t Q",
      "v N",
      "y en",
      "z A",
      "in l",
      "ci e",
      "as l",
      "++++ *",
      "em n",
      "id n",
      "22 2",
      "ia o",
      "39 7",
      "sh a",
      "45 4",
      "88 8",
      "33 8",
      "bin ding",
      "+ --",
      "F es",
      "I T",
      "J Z",
      "J v",
      "P H",
      "P p",
      "P y",
      "S V",
      "U u",
      "V K",
      "W h",
      "Y b",
      "a Q",
      "e Z",
      "e do",
      "e he",
      "g re",
      "j O",
      "j et",
      "k er",
      "m as",
      "r D",
      "s Q",
      "s ie",
      "t ne",
      "u L",
      "x N",
      "x k",
      "z x",
      "Ġ es",
      "do m",
      "el r",
      "gi a",
      "no i",
      "to i",
      "ch er",
      "ae f",
      "+++ &",
      "+++++ *",
      "-- +--",
      "73 4",
      "ei h",
      "sh i",
      "na a",
      "77 1",
      "........ ........",
      "FWIN NT",
      "--+-- +--%",
      "B H",
      "B on",
      "G Q",
      "G W",
      "H uel",
      "I X",
      "J X",
      "M T",
      "M b",
      "R H",
      "S v",
      "T T",
      "V d",
      "W A",
      "W a",
      "W d",
      "X Z",
      "Y s",
      "c an",
      "e io",
      "f T",
      "h ie",
      "j Z",
      "m A",
      "n Z",
      "n st",
      "n ae",
      "s K",
      "t ro",
      "t is",
      "v ent",
      "w at",
      "x q",
      "ci ano",
      "as p",
      "as r",
      "el lo",
      "et ween",
      "ec te",
      "le i",
      "de i",
      "te f",
      "ra w",
      "so o",
      "he et",
      "ao h",
      "rt d",
      "rt s",
      "ed u",
      "60 8",
      "im age",
      "ED as",
      "sty les",
      "ren se",
      "0 35",
      "0 48",
      "5 49",
      "7 19",
      "D J",
      "E Z",
      "G z",
      "H K",
      "K e",
      "L Z",
      "L p",
      "L y",
      "M k",
      "O k",
      "O q",
      "R j",
      "R k",
      "T R",
      "T ar",
      "U X",
      "W K",
      "W i",
      "W l",
      "b I",
      "b ia",
      "c ro",
      "c ad",
      "d X",
      "d al",
      "e id",
      "g S",
      "h Z",
      "k ar",
      "l S",
      "l ae",
      "m on",
      "n ar",
      "o li",
      "o tt",
      "q T",
      "t nt",
      "u tt",
      "w X",
      "x H",
      "Ġ V",
      "er ia",
      "ad r",
      "en u",
      "no a",
      "no m",
      "at d",
      "at ge",
      "de p",
      "se p",
      "ra y",
      "so m",
      "74 1",
      "ce p",
      "um p",
      "eh i",
      "ns s",
      "55 6",
      "Val le",
      "3 35",
      "4 43",
      "B B",
      "C el",
      "E et",
      "H Q",
      "I z",
      "J n",
      "M Q",
      "M y",
      "M ol",
      "O H",
      "P Q",
      "T S",
      "U c",
      "b A",
      "e or",
      "f S",
      "h G",
      "h to",
      "i or",
      "j x",
      "n Q",
      "o M",
      "o to",
      "p O",
      "p S",
      "p ri",
      "r to",
      "s em",
      "t Y",
      "v z",
      "w K",
      "w eo",
      "x j",
      "re na",
      "ri g",
      "lo ad",
      "no d",
      "li g",
      "le g",
      "Re y",
      "he u",
      "73 1",
      "49 7",
      "59 5",
      "Pu erto",
      "wor k",
      "3 15",
      "4 60",
      "7 18",
      "B or",
      "C ruz",
      "F id",
      "J T",
      "J i",
      "M al",
      "P b",
      "R ob",
      "U Z",
      "U y",
      "Y L",
      "Y p",
      "a it",
      "a ie",
      "c in",
      "c en",
      "d st",
      "e on",
      "g A",
      "g es",
      "h K",
      "i M",
      "o V",
      "p ee",
      "r V",
      "s D",
      "s J",
      "t al",
      "t ns",
      "t xt",
      "u M",
      "w S",
      "w er",
      "x A",
      "x O",
      "x v",
      "x z",
      "Ġ .",
      "28 2",
      "il t",
      "em r",
      "ie y",
      "26 1",
      "pre ss",
      "21 1",
      "74 4",
      "us h",
      "30 4",
      "si i",
      "36 7",
      "nu l",
      "cha irs",
      "rdo ba",
      "Huel va",
      "3 14",
      "= ++",
      "A stu",
      "B S",
      "C F",
      "E A",
      "E ea",
      "G U",
      "G y",
      "G ra",
      "I S",
      "N k",
      "R K",
      "R z",
      "U M",
      "U g",
      "U q",
      "Y X",
      "Y i",
      "a X",
      "a bo",
      "b es",
      "b la",
      "c te",
      "c ea",
      "e di",
      "e ia",
      "h ne",
      "h is",
      "i os",
      "j T",
      "j j",
      "k O",
      "m or",
      "m ac",
      "o it",
      "o ae",
      "r Z",
      "s W",
      "t ri",
      "t ec",
      "u la",
      "w id",
      "y S",
      "ar ro",
      "ci t",
      "st l",
      "on r",
      "en y",
      "mo nt",
      "no s",
      "id h",
      "am s",
      "os h",
      "20 7",
      "ut i",
      "ber to",
      "go v",
      "au l",
      "69 3",
      "88 7",
      "Ou rense",
      "acker sip",
      "Ped ro",
      "Astu rias",
      "- _",
      "3 77",
      "A D",
      "B L",
      "C Z",
      "E H",
      "F as",
      "J E",
      "J p",
      "L V",
      "M on",
      "M ig",
      "O V",
      "P q",
      "P er",
      "Q e",
      "R L",
      "R T",
      "S C",
      "U p",
      "W Q",
      "W k",
      "Y Z",
      "a V",
      "c re",
      "f H",
      "f ession",
      "i so",
      "l st",
      "n C",
      "n U",
      "o er",
      "o eo",
      "p es",
      "r ri",
      "s Z",
      "s no",
      "u st",
      "u eh",
      "w Z",
      "z v",
      "z al",
      "or h",
      "ro i",
      "an da",
      "ir r",
      "ie u",
      "ae b",
      "ae z",
      "+++ *",
      "ot s",
      "ex press",
      "ut n",
      "ed s",
      "ed ra",
      "sa a",
      "tr s",
      "90 3",
      "00 0",
      "Cam ino",
      "fession al",
      "express ion",
      "4 75",
      "6 74",
      "B Z",
      "B ET",
      "D script",
      "D om",
      "D javascript",
      "E ee",
      "F is",
      "G g",
      "P O",
      "P g",
      "P or",
      "P ere",
      "W m",
      "Y r",
      "Z t",
      "a as",
      "i as",
      "i ri",
      "j I",
      "k E",
      "l H",
      "m ie",
      "m ea",
      "n nt",
      "n so",
      "p A",
      "p is",
      "q H",
      "r il",
      "t C",
      "t ht",
      "u te",
      "v is",
      "w et",
      "w ei",
      "z E",
      "Ġ _",
      "Ġ te",
      "en m",
      "an co",
      "lo gi",
      "id t",
      "ec k",
      "mb ra",
      "23 2",
      "ne f",
      "ot h",
      "39 4",
      "ea res",
      "ao d",
      "ei g",
      "ei x",
      "ed r",
      "eh r",
      "sa h",
      "Car ret",
      "FA z",
      "WE EN",
      "BET WEEN",
      "0 14",
      "3 39",
      "9 89",
      "A rt",
      "B script",
      "F J",
      "F Y",
      "F et",
      "F ECT",
      "F ION",
      "G H",
      "G b",
      "J V",
      "J y",
      "K i",
      "L A",
      "P E",
      "P W",
      "P X",
      "P c",
      "S il",
      "T H",
      "T q",
      "a an",
      "b ru",
      "d ad",
      "e ho",
      "g R",
      "i do",
      "j R",
      "j U",
      "k Q",
      "k U",
      "o Z",
      "p I",
      "t M",
      "t X",
      "t se",
      "t ao",
      "w A",
      "y H",
      "Ġ it",
      "Ġ ea",
      "nt l",
      "on load",
      "et f",
      "et g",
      "en z",
      "an el",
      "mo e",
      "ee g",
      "de h",
      "ae y",
      "io a",
      "se u",
      "so u",
      "ne h",
      "ao i",
      "go l",
      "60 7",
      "ta a",
      "30 3",
      "ss n",
      "ai i",
      "oo a",
      "xt y",
      "55 5",
      "90 0",
      "56 8",
      "Cas as",
      "Gui p",
      "FAz coa",
      "4 89",
      "B M",
      "B at",
      "C W",
      "G Z",
      "G en",
      "H er",
      "L K",
      "O f",
      "O x",
      "S eg",
      "T g",
      "U w",
      "V E",
      "V Z",
      "X h",
      "Y T",
      "Y c",
      "b R",
      "i D",
      "i Z",
      "j os",
      "k q",
      "l em",
      "m ad",
      "n V",
      "o es",
      "p U",
      "q Q",
      "s im",
      "t ia",
      "t rt",
      "u D",
      "v E",
      "Ġ R",
      "Ġ re",
      "Ġ en",
      "do t",
      "ro o",
      "ad t",
      "et b",
      "an m",
      "an ueva",
      "at m",
      "ec to",
      "ca st",
      "ae w",
      "eo d",
      "ra a",
      "ra h",
      "ra o",
      "ot l",
      "39 2",
      "us a",
      "eh s",
      "na h",
      "pwd ump",
      "49 1",
      "65 1",
      "ha a",
      "50 8",
      "66 4",
      "05 4",
      "val ues",
      "Bal eares",
      "Ant onio",
      "Fran cis",
      "3 27",
      "4 19",
      "A ng",
      "C Q",
      "F re",
      "F al",
      "G K",
      "G f",
      "G h",
      "I Q",
      "L au",
      "P L",
      "P ui",
      "Q m",
      "U L",
      "W Y",
      "Y d",
      "a Z",
      "a ai",
      "b S",
      "c R",
      "c ls",
      "d M",
      "d re",
      "e em",
      "e ir",
      "e ht",
      "f R",
      "g W",
      "h M",
      "h ss",
      "i in",
      "j on",
      "j as",
      "k H",
      "n K",
      "n se",
      "o K",
      "p an",
      "r nt",
      "u it",
      "v H",
      "v x",
      "Ġ tt",
      "re nt",
      "ar io",
      "ci al",
      "ro m",
      "el n",
      "ch il",
      "it u",
      "tt p",
      "le db",
      "vin g",
      "la h",
      "eo l",
      "io nt",
      "ra c",
      "so i",
      "ht r",
      "ut u",
      "45 7",
      "ti h",
      "99 5",
      "displa y",
      "uto exec",
      "Carret era",
      "8 65",
      "8 69",
      "= .%",
      "A q",
      "B x",
      "C ue",
      "D ie",
      "E U",
      "F ro",
      "F Rioja",
      "G O",
      "G V",
      "G x",
      "I E",
      "I H",
      "I sa",
      "I lles",
      "J l",
      "J m",
      "N N",
      "P f",
      "P k",
      "Q O",
      "R af",
      "U E",
      "U x",
      "W b",
      "X N",
      "X p",
      "X t",
      "Y y",
      "Z i",
      "a Y",
      "c ri",
      "d K",
      "g at",
      "g tt",
      "h no",
      "j N",
      "l at",
      "m O",
      "m Z",
      "m ae",
      "n he",
      "n rt",
      "o ed",
      "q N",
      "r ing",
      "s re",
      "t st",
      "t he",
      "u eo",
      "u se",
      "Ġ C",
      "Ġ J",
      "or io",
      "gi o",
      "at c",
      "at ab",
      "id i",
      "ee q",
      "ni r",
      "os c",
      "10 1",
      "24 2",
      "ho a",
      "70 1",
      "ce h",
      "75 1",
      "75 2",
      "ei m",
      "79 1",
      "ns d",
      "89 2",
      "oo d",
      "un do",
      "99 9",
      "RO W",
      "SE T",
      "Cast ro",
      "+. *%",
      "Trav esia",
      "0 86",
      "3 76",
      "5 60",
      "6 39",
      "6 80",
      "= *",
      "B pwd",
      "C ol",
      "C body",
      "D DBMSSOCN",
      "F lo",
      "F at",
      "G T",
      "G X",
      "K a",
      "L T",
      "M ir",
      "O A",
      "P R",
      "P ad",
      "T OP",
      "U Q",
      "V H",
      "V iz",
      "Y Q",
      "_ %",
      "b as",
      "b os",
      "c M",
      "d L",
      "e al",
      "f M",
      "f ee",
      "h J",
      "h re",
      "i ar",
      "i ca",
      "j z",
      "j es",
      "k S",
      "l to",
      "m K",
      "n P",
      "n on",
      "o le",
      "r P",
      "s st",
      "t V",
      "t W",
      "t no",
      "t em",
      "t sa",
      "t sn",
      "v K",
      "w il",
      "x Q",
      "y ee",
      "y ne",
      "Ġ ae",
      "st hr",
      "or ca",
      "et work",
      "ni g",
      "os s",
      "te g",
      "23 1",
      "io h",
      "74 7",
      "is l",
      "76 2",
      "ns n",
      "69 1",
      "ss s",
      "ha i",
      "tas k",
      "66 7",
      "88 2",
      "90 8",
      "86 8",
      "dd ress",
      "Mar tin",
      "bar celona",
      "Av da",
      "Lo ledb",
      "EN ROW",
      "OP ENROW",
      "BA ddress",
      "SQ Loledb",
      "BN etwork",
      "Pass atge",
      "Francis co",
      "OPENROW SET",
      "0 80",
      "0 65",
      "7 15",
      "B EXEC",
      "E eo",
      "F an",
      "F ee",
      "F xml",
      "G q",
      "I k",
      "J I",
      "K r",
      "N x",
      "T x",
      "W V",
      "Y H",
      "_ -",
      "a ot",
      "b K",
      "c L",
      "c ap",
      "c ur",
      "f it",
      "h C",
      "i ia",
      "i fram",
      "j M",
      "l C",
      "l D",
      "l re",
      "m ag",
      "o eh",
      "p al",
      "q A",
      "q I",
      "q U",
      "q ues",
      "r G",
      "r no",
      "s P",
      "s rt",
      "t P",
      "t le",
      "u et",
      "w Y",
      "Ġ L",
      "Ġ an",
      "Ġ to",
      "Ġ eh",
      "in do",
      "er g",
      "do o",
      "st on",
      "as u",
      "el et",
      "et ti",
      "an os",
      "em l",
      "di t",
      "23 35",
      "la o",
      "se g",
      "carrito any",
      "ne z",
      "20 1",
      "ce d",
      "ei c",
      "eh n",
      "ns a",
      "ru p",
      "ta i",
      "30 1",
      "ss l",
      "lt n",
      "ai h",
      "oo e",
      "ah n",
      "55 8",
      "ma ke",
      "un ame",
      "77 7",
      "59 3",
      "84 7",
      "OR D",
      "Do ctor",
      "web task",
      "make webtask",
      "3 23",
      "3 65",
      "3 48",
      "4 16",
      "4 80",
      "7 26",
      "A del",
      "D M",
      "F in",
      "F telnet",
      "I U",
      "P AS",
      "S L",
      "T re",
      "T eo",
      "U R",
      "V r",
      "Y I",
      "Y V",
      "Z ar",
      "b eo",
      "c X",
      "c Z",
      "c li",
      "d Y",
      "d Z",
      "f es",
      "h nt",
      "i K",
      "k A",
      "m L",
      "n G",
      "n as",
      "o st",
      "o de",
      "o ie",
      "p te",
      "p ot",
      "p ea",
      "p ut",
      "s B",
      "s nt",
      "s or",
      "v O",
      "v as",
      "w ar",
      "z L",
      "++ *",
      "in m",
      "in es",
      "on c",
      "ri go",
      "em h",
      "to h",
      "co ll",
      "it m",
      "ae g",
      "eo b",
      "so a",
      "ht d",
      "ht h",
      "ia c",
      "20 62",
      "ns i",
      "49 2",
      "ha h",
      "lt i",
      "78 1",
      "78 2",
      "nr h",
      "Cl ink",
      "Le on",
      "Cam po",
      "Fo nt",
      "SW ORD",
      "Vir gen",
      "abo ut",
      "PAS SWORD",
      "- .",
      "0 18",
      "0 30",
      "0 69",
      "3 86",
      "4 22",
      "6 21",
      "7 16",
      "9 10",
      "A Q",
      "D es",
      "E W",
      "F en",
      "F ie",
      "M H",
      "P Y",
      "R Z",
      "W T",
      "W r",
      "W x",
      "Y J",
      "b il",
      "b us",
      "c ne",
      "d Q",
      "e am",
      "e ue",
      "f on",
      "f ea",
      "f ed",
      "h U",
      "i V",
      "j X",
      "m eo",
      "n X",
      "n no",
      "n ho",
      "n na",
      "o X",
      "o at",
      "o ot",
      "p L",
      "p st",
      "q S",
      "r am",
      "r le",
      "s io",
      "t so",
      "u ae",
      "v era",
      "y O",
      "z J",
      "z V",
      "ar h",
      "er y",
      "er te",
      "es y",
      "ri i",
      "mo l",
      "os r",
      "ch u",
      "ir n",
      "ap a",
      "ap la",
      "de d",
      "te y",
      "la a",
      "he w",
      "ot d",
      "is n",
      "is r",
      "ao l",
      "ao y",
      "eh h",
      "ha y",
      "ct i",
      "nn n",
      "90 5",
      "33 4",
      "hi per",
      "Vill al",
      ". -",
      "0 66",
      "3 85",
      "3 79",
      "4 18",
      "5 19",
      "6 85",
      "6 75",
      "7 24",
      "9 85",
      "9 76",
      "E K",
      "F nt",
      "F to",
      "F se",
      "G J",
      "H L",
      "H c",
      "H q",
      "J b",
      "L S",
      "L j",
      "M ur",
      "P V",
      "P w",
      "R V",
      "T ra",
      "U O",
      "U sa",
      "U rb",
      "V er",
      "W N",
      "Z X",
      "a os",
      "a ia",
      "b te",
      "b ra",
      "d B",
      "d V",
      "g sound",
      "h ht",
      "i C",
      "i X",
      "j A",
      "k in",
      "l ad",
      "m ah",
      "n in",
      "p K",
      "p R",
      "q O",
      "q k",
      "r Y",
      "s G",
      "s Y",
      "s il",
      "t B",
      "t de",
      "u U",
      "v A",
      "v X",
      "v k",
      "v id",
      "w el",
      "w al",
      "z M",
      "z an",
      "Ġ -",
      "Ġ ne",
      "Ġ ei",
      "re sh",
      "in go",
      "er p",
      "er as",
      "nt d",
      "on y",
      "ad s",
      "at f",
      "at w",
      "ni t",
      "co o",
      "la i",
      "la va",
      "he y",
      "bo l",
      "ns l",
      "ru c",
      "im e",
      "ember s",
      "nd a",
      "nd s",
      "ss i",
      "sy sd",
      "hr h",
      "hr s",
      "ii i",
      "nr s",
      "Pas aje",
      "ui v",
      "59 6",
      "eb a",
      "Al cal",
      "38 4",
      "ub i",
      "utdow n",
      "liv escript",
      "Mig uel",
      "atab ases",
      "sysd atabases",
      "- +",
      "3 20",
      "3 78",
      "6 10",
      "7 74",
      "9 30",
      "C ri",
      "D R",
      "E V",
      "E Y",
      "F ds",
      "F res",
      "G S",
      "G k",
      "H g",
      "I D",
      "J g",
      "K T",
      "M ay",
      "P I",
      "Q a",
      "Q h",
      "R W",
      "U K",
      "U V",
      "b ie",
      "d un",
      "e il",
      "f le",
      "g il",
      "j L",
      "l X",
      "l am",
      "m sp",
      "o on",
      "p ad",
      "r st",
      "r ni",
      "t J",
      "t na",
      "u K",
      "v S",
      "v T",
      "v Y",
      "x L",
      "x Z",
      "y U",
      "y X",
      "y et",
      "Ġ D",
      "Ġ er",
      "in ter",
      "ci i",
      "ro y",
      "es pa",
      "an k",
      "lo t",
      "di i",
      "ni i",
      "os i",
      "it y",
      "le h",
      "de u",
      "ie f",
      "26 2",
      "ae p",
      "ho l",
      "ne w",
      "us s",
      "sn h",
      "oo l",
      "ab l",
      "ig a",
      "Mar t",
      "Ci frame",
      "illo s",
      "Vill ar",
      "styles heet",
      ". @",
      "0 60",
      "3 21",
      "3 18",
      "3 44",
      "4 73",
      "4 48",
      "5 10",
      "5 24",
      "5 90",
      "5 99",
      "8 39",
      "F ne",
      "F ig",
      "G d",
      "G p",
      "H k",
      "I C",
      "I Y",
      "J s",
      "L L",
      "M R",
      "M Y",
      "M g",
      "N S",
      "N X",
      "N Z",
      "P x",
      "P et",
      "Q U",
      "R on",
      "T W",
      "T ee",
      "V q",
      "W G",
      "W U",
      "a on",
      "b ert",
      "b ao",
      "d um",
      "e F",
      "f L",
      "f Y",
      "f et",
      "f an",
      "f te",
      "f eo",
      "g U",
      "l te",
      "m is",
      "m ed",
      "m eh",
      "n ad",
      "n ao",
      "o Q",
      "p X",
      "w es",
      "y se",
      "z X",
      "Ġ is",
      "Ġ tn",
      "st in",
      "or l",
      "on es",
      "ro h",
      "en la",
      "ri m",
      "an l",
      "an r",
      "gi s",
      "ee k",
      "di z",
      "ec r",
      "la u",
      "io d",
      "ne g",
      "au x",
      "79 2",
      "ns f",
      "sr l",
      "ti i",
      "83 2",
      "ds q",
      "av io",
      "95 3",
      "Lu is",
      "xty pe",
      "0 73",
      "0 64",
      "3 26",
      "4 14",
      "4 35",
      "7 70",
      "8 13",
      "8 45",
      "9 80",
      "9 56",
      "A et",
      "A ee",
      "B P",
      "D V",
      "F st",
      "F on",
      "F it",
      "F pro",
      "F te",
      "F version",
      "G L",
      "H W",
      "K O",
      "K Q",
      "K b",
      "L R",
      "M E",
      "N Q",
      "R en",
      "S J",
      "T k",
      "V O",
      "V y",
      "X y",
      "Z K",
      "a C",
      "a G",
      "a ad",
      "a ao",
      "c tt",
      "d J",
      "d nt",
      "f A",
      "g Q",
      "h X",
      "h Y",
      "h as",
      "h rt",
      "j k",
      "j ee",
      "j sp"
    ]
  }
}